
!
"
%
'
(
)
*
,
-
/
1
2
3
4
5
6
7
8
9
:
<
>
?
A
B
C
D
E
F
G
H
I
J
K
L
M
N
O
P
Q
R
S
T
U
V
W
X
Y
Z
a
b
c
d
e
f
g
h
i
j
k
l
m
n
o
p
q
r
s
t
u
v
w
x
y
z
،
؛
؟
ء
آ
أ
ؤ
إ
ئ
ا
ب
ة
ت
ث
ج
ح
خ
د
ذ
ر
ز
س
ش
ص
ض
ط
ظ
ع
غ
ف
ق
ك
ل
م
ن
ه
و
ى
ي
٠
١
٢
٣
٤
٥
٦
٧
٨
٩
–
“
”
!"
!)
!.
!؟
"!
"(
",
".
":
">
"،
"؛
"؟
%)
%.
%،
'.
':
()
)!
),
).
):
)،
)؛
)؟
-%
-(
.!
."
.)
.؟
.”
0.
00
01
02
03
04
05
06
07
08
09
1.
10
11
12
13
14
15
16
17
18
19
2)
20
21
22
23
24
25
26
27
28
29
30
31
32
33
34
35
36
37
38
39
40
41
42
43
44
45
46
47
48
49
50
51
52
53
54
55
56
57
58
59
60
61
62
63
64
65
66
67
68
69
70
71
72
73
74
75
76
77
78
79
80
81
82
83
84
85
86
87
88
89
90
91
92
93
94
95
96
97
98
99
:"
:'
:(
>.
?،
Ab
Ac
Ad
Ag
Al
Am
An
Ar
As
Au
BM
Ba
Be
Bi
Bl
Bo
Br
Bu
Ca
Ch
Co
Da
De
Di
Do
Dr
Du
II
IS
Im
In
Is
Ma
Me
Mi
Mo
My
Pa
Pe
Ph
Po
Sa
Se
Sh
So
Sp
St
Ta
Te
Th
Ti
To
al
ar
be
br
ca
co
cr
de
di
el
ha
in
is
la
ma
me
mo
mt
ne
no
on
pa
pl
po
re
sa
sc
se
so
st
su
to
tr
؟!
؟"
؟'
؟)
؟-
؟.
؟”
آب
آت
آخ
آد
آر
آس
آش
آغ
آف
آل
آم
آن
آه
آى
آي
أب
أث
أج
أح
أخ
أد
أذ
أر
أز
أس
أش
أض
أع
أغ
أف
أق
أك
أل
أم
أن
أو
أى
أي
إب
إج
إخ
إد
إذ
إر
إز
إس
إش
إف
إل
إم
إن
إي
اج
اح
اخ
اذ
اس
اق
ال
ان
او
بأ
بإ
بت
بث
بح
بخ
بد
بر
بز
بس
بش
بص
بق
بك
بل
بن
به
بو
بي
تأ
تؤ
تب
تت
تج
تح
تخ
تد
تر
تس
تش
تص
تض
تط
تع
تغ
تف
تق
تك
تل
تم
تن
تو
ثا
ثل
ثم
جا
جب
جح
جد
جذ
جر
جز
جس
جل
جم
جن
جه
جو
جي
حا
حب
حت
حث
حج
حد
حذ
حر
حز
حس
حش
حص
حض
حط
حظ
حف
حق
حك
حل
حم
حو
حى
حي
خا
خب
خد
خذ
خر
خز
خس
خص
خط
خف
خل
خم
خو
خي
دا
دب
در
دع
دف
دق
دم
دو
دي
ذا
ذر
ذل
ذم
ذو
ذي
رئ
رب
رح
رخ
رد
رش
رص
رف
رق
رو
زا
زج
زر
زع
زغ
زف
زم
زه
زو
زي
سأ
سا
سب
ست
سج
سح
سد
سر
سط
سع
سف
سق
سك
سل
سم
سن
سو
سي
شئ
شا
شب
شت
شح
شخ
شد
شذ
شر
شط
شع
شف
شق
شك
شم
شن
شه
شو
شي
صا
صب
صح
صد
صع
صف
صك
صل
صم
صن
صو
صي
ضب
ضخ
ضد
ضر
ضم
ضو
طب
طر
طل
طن
طه
طو
طي
ظل
ظن
عا
عب
عج
عد
عر
عز
عس
عش
عض
عط
عق
عك
عل
عم
عن
عو
عي
غا
غب
غد
غر
غش
غص
غض
غل
غن
غو
غي
فأ
فإ
فت
فج
فخ
فر
فس
فش
فص
فض
فق
فك
فل
فو
فى
في
قا
قب
قد
قذ
قر
قس
قش
قص
قط
قل
قم
قو
قي
كأ
كا
كب
كت
كث
كح
كر
كس
كش
كغ
كف
كل
كم
كن
كو
كي
لآ
لأ
لإ
لا
لج
لح
لد
لذ
لش
لص
لغ
لق
لك
لل
لم
لن
له
لو
لي
مؤ
ما
مت
مث
مج
مح
مخ
مد
مذ
مر
مز
مس
مش
مص
مض
مط
مظ
مع
مغ
مق
مك
مم
من
مو
نج
نح
نخ
نز
نس
نش
نص
نض
نع
نف
نق
هد
هذ
هز
هش
هل
هم
هن
هو
هى
هي
وآ
وأ
وإ
وب
وت
وج
وخ
ود
وز
وس
وش
وص
وض
وف
وق
وك
ول
وم
يؤ
يت
يح
يخ
يد
يذ
ير
يس
يش
يع
يغ
يق
يو
١٠
١١
١٢
٢٠
٢١
٢٢
”.
”:
”،
").
")،
"؟!
##!
##"
##%
##'
##(
##)
##*
##,
##-
##.
##/
##0
##1
##2
##3
##4
##5
##6
##7
##8
##9
##:
##<
##>
##?
##A
##B
##C
##D
##E
##F
##G
##H
##I
##J
##K
##L
##M
##N
##O
##P
##Q
##R
##S
##T
##U
##V
##W
##X
##Y
##Z
##a
##b
##c
##d
##e
##f
##g
##h
##i
##j
##k
##l
##m
##n
##o
##p
##q
##r
##s
##t
##u
##v
##w
##x
##y
##z
##،
##؛
##؟
##ء
##آ
##أ
##ؤ
##إ
##ئ
##ا
##ب
##ة
##ت
##ث
##ج
##ح
##خ
##د
##ذ
##ر
##ز
##س
##ش
##ص
##ض
##ط
##ظ
##ع
##غ
##ف
##ق
##ك
##ل
##م
##ن
##ه
##و
##ى
##ي
##٠
##١
##٢
##٣
##٤
##٥
##٦
##٧
##٨
##٩
##–
##“
##”
(!)
(*)
(.)
)".
)."
.؟!
0.1
0.2
0.3
0.4
0.5
0.6
0.7
0.8
0.9
00,
00،
050
09:
1,1
1,2
1,3
1,4
1,5
1,6
1,8
1.0
1.1
1.2
1.3
1.4
1.5
1.6
1.7
1.8
1.9
100
101
102
103
104
105
106
107
108
109
110
112
113
114
115
116
117
118
119
120
121
122
123
124
125
126
127
128
129
130
131
132
133
134
135
136
137
138
139
140
141
142
143
144
145
146
147
148
149
150
151
152
153
154
155
156
157
158
159
160
161
162
163
164
165
166
167
168
169
170
171
172
173
174
175
176
177
178
179
180
181
182
183
184
185
186
187
188
189
19.
190
191
192
193
194
195
196
197
198
199
2,5
2.0
2.1
2.2
2.3
2.4
2.5
2.6
2.7
2.8
2.9
200
202
203
204
205
206
207
209
210
212
213
214
215
216
217
218
219
220
221
223
224
225
226
227
230
235
236
238
239
240
242
245
246
250
255
256
260
265
270
272
275
280
285
290
3,5
3.0
3.1
3.2
3.3
3.4
3.5
3.6
3.7
3.8
3.9
300
310
320
325
330
340
350
360
365
370
375
380
390
4.0
4.1
4.2
4.3
4.4
4.5
4.6
4.7
4.8
4.9
400
420
425
430
440
450
460
470
480
5.1
5.2
5.3
5.4
5.5
5.6
5.7
5.8
5.9
500
520
540
550
560
5،1
6.2
6.3
6.4
6.5
6.6
6.7
6.8
600
640
650
660
7.2
7.3
7.4
7.5
7.6
7.7
700
720
737
750
787
8.5
800
850
9.5
900
950
990
Ass
BBC
Ban
Bla
Car
Com
Con
Dis
MBC
Man
Mar
Mon
Par
Per
Pre
Pri
Pro
SMS
Ser
Str
The
Tra
art
att
con
lbc
mbc
not
pro
tha
the
you
؟!.
؟".
آبل
آثر
آثم
آخذ
آخر
آدم
آرت
آسر
آسف
آصف
آغا
آكل
آلة
آلت
آلي
آمر
آمل
آمن
آنا
آند
آية
آيت
آيف
أؤم
أبا
أبد
أبر
أبل
أبن
أبو
أبى
أبي
أتت
أتر
أتش
أتم
أتو
أتى
أثر
أثق
أجد
أجر
أجل
أجو
أحب
أحد
أحر
أحس
أحص
أحق
أحل
أخت
أخذ
أخر
أخش
أخص
أخط
أخف
أخل
أخو
أخي
أدب
أدت
أدع
أدق
أدل
أدم
أدى
أدي
أذك
أذن
أذى
أرت
أرخ
أرد
أرز
أرس
أرض
أرق
أرك
أرى
أري
أزر
أسب
أست
أسد
أسر
أسس
أسط
أسف
أسم
أسو
أشد
أشر
أشك
أصح
أصر
أصف
أصل
أصم
أضر
أضع
أضف
أطر
أطل
أظن
أعت
أعد
أعز
أعط
أعف
أعم
أغر
أفت
أفض
أفق
أقر
أقف
أقل
أكد
أكس
أكف
أكل
أكن
ألا
ألت
ألح
ألف
ألق
ألك
ألم
ألي
أما
أمة
أمد
أمر
أمس
أمل
أمن
أمه
أمي
أنه
أهد
أهل
أهم
أهو
أوج
أوز
أول
أيا
أية
أيد
أين
إبر
إبل
إبن
إتش
إثر
إثم
إحت
إخو
إده
إذا
إذن
إرث
إست
إسم
إكس
إلا
إلخ
إله
إلى
إلي
إما
إنك
إنه
إيج
إيد
إير
إيز
إيس
إيف
إيك
إيل
إيم
إين
إيه
ابت
ابد
ابر
ابن
ابو
ابي
اتش
اتق
اثر
اثن
اجت
اجد
اجر
اجل
احب
احت
احد
احس
احص
اخت
اخذ
اخر
اخف
اخو
اخي
ادع
ادن
اذا
اذن
ارت
ارض
ارغ
ازد
اسب
است
اسر
اسس
اسط
اسف
اسم
اسو
اشت
اشد
اشك
اصر
اصط
اصف
اصل
اضر
اضف
اطر
اطل
اطو
اظن
اعت
اعد
اعز
اعط
اعل
اغر
اغل
اغن
افت
افر
اقب
اقر
اقل
اكد
اكر
اكس
الآ
الأ
الإ
الا
الب
الت
الث
الج
الح
الخ
الد
الذ
الر
الز
الس
الش
الص
الض
الط
الظ
الغ
الف
الق
الك
الم
الى
الي
اما
امت
امر
امس
امض
امي
انت
انه
اهد
اهل
اهم
اود
اور
اوف
اول
ايا
ايج
ايد
اير
ايس
ايض
ايغ
ايف
ايه
بآل
بأس
بأم
بأن
بأو
بأى
بأي
بؤر
بؤس
بإن
بئر
باب
بات
باث
باج
باح
باخ
باد
بار
باز
باس
باش
باص
باع
باغ
باق
باك
بال
بان
باه
باي
ببث
ببر
ببن
ببو
بتح
بتر
بتل
بتن
بثت
بثه
بجد
بجر
بجه
بجو
بحب
بحت
بحث
بحج
بحد
بحر
بحس
بحق
بحل
بحي
بخش
بخط
بخل
بدء
بدأ
بدئ
بدا
بدت
بدر
بدل
بدم
بدو
بدي
بذر
بذل
بذم
برا
برب
برج
برح
برد
برر
برز
برس
برش
برع
برق
برك
برم
برن
بره
برو
بري
بزي
بسب
بست
بسر
بسط
بسم
بسن
بشد
بشر
بشع
بشق
بشن
بصح
بصر
بصف
بصل
بضخ
بضع
بضم
بطء
بطب
بطش
بطل
بطن
بطي
بعث
بعد
بعر
بعض
بعل
بعم
بغد
بغض
بغل
بغي
بفض
بفك
بفن
بقر
بقص
بقع
بقى
بقي
بكر
بكف
بكل
بكم
بلا
بلح
بلد
بلغ
بلو
بمؤ
بما
بمب
بمج
بمح
بمخ
بمد
بمر
بمس
بمش
بمص
بمط
بمع
بمق
بمك
بمن
بمو
بنا
بنت
بند
بنص
بنك
بني
بها
بهم
بوب
بوت
بوج
بوح
بوخ
بود
بور
بوز
بوس
بوش
بوص
بوع
بوغ
بوف
بوق
بوك
بول
بوم
بون
بوي
بيت
بيج
بيد
بير
بيز
بيس
بيش
بيض
بيع
بيغ
بيك
بيل
بين
بيو
تأب
تأت
تؤت
تؤد
تاب
تاج
تار
تاس
تاف
تاك
تام
تاه
تاو
تاي
تبت
تبث
تبد
تبر
تبع
تبق
تتح
تتر
تتم
تثق
تجب
تجد
تجر
تجز
تجف
تجن
تحب
تحت
تحث
تحد
تحس
تحض
تحط
تحظ
تحل
تحم
تحو
تحي
تخت
تخش
تخص
تخف
تخل
تخي
تدر
تدع
تدق
تدل
تدم
تدن
تذر
ترا
ترب
ترت
ترد
ترض
ترف
ترق
ترك
ترم
ترو
ترى
تري
تزد
تزل
تزن
تزه
تسا
تست
تسد
تسر
تسع
تسف
تسل
تسم
تسن
تسو
تسي
تشا
تشت
تشد
تشر
تشق
تشن
تشو
تشي
تصب
تصح
تصد
تصر
تصف
تصل
تضج
تضخ
تضر
تضع
تضم
تطأ
تطغ
تطل
تظل
تظن
تعا
تعب
تعج
تعد
تعر
تعز
تعط
تعم
تعن
تعي
تغب
تغر
تغص
تغط
تفت
تفر
تفض
تفي
تقت
تقر
تقص
تقض
تقع
تقف
تقل
تقم
تقي
تكت
تكد
تكر
تكف
تكن
تلا
تلب
تلة
تلت
تلغ
تلف
تلق
تلك
تلو
تلي
تمت
تمد
تمر
تمس
تمض
تنس
تنص
تنع
تنف
تنك
تنم
تنه
تنو
تهب
تهز
تهم
توا
توب
توت
توج
تود
تور
توز
توف
توق
توك
تول
توم
تون
توي
تيا
تيب
تيت
تيج
تيد
تير
تيل
تيم
ثأر
ثار
ثان
ثبت
ثدي
ثري
ثعل
ثغر
ثقب
ثقة
ثقل
ثلث
ثمة
ثمن
ثوب
ثور
ثيو
جئت
جاء
جائ
جاب
جاد
جار
جاز
جاف
جاك
جال
جام
جان
جاو
جاي
جبر
جبل
جبن
جثة
جثت
جثث
جحا
جدا
جدة
جدد
جدل
جده
جدو
جدي
جذب
جذع
جرا
جرب
جرت
جرح
جرد
جرس
جرش
جرف
جرم
جرو
جرى
جري
جزء
جزا
جزر
جسد
جسر
جسم
جشع
جعب
جعل
جفا
جفت
جفن
جلب
جلد
جلس
جلي
جمة
جمر
جمع
جمل
جنا
جنب
جنت
جنح
جند
جنس
جنو
جنى
جني
جهة
جهد
جهز
جهل
جوا
جوخ
جود
جور
جوز
جوس
جوش
جوع
جوف
جول
جون
جوي
جيب
جيت
جيج
جيد
جير
جيش
جيف
جيل
جيم
جين
جيه
جيو
حاج
حاد
حار
حاز
حال
حان
حبا
حبة
حبر
حبس
حبش
حبك
حبل
حبه
حبي
حتم
حتى
حتي
حثت
حجب
حجة
حجج
حجر
حجز
حجم
حجي
حدا
حدة
حدث
حدد
حذر
حذف
حذو
حرا
حرب
حرة
حرج
حرر
حرس
حرص
حرض
حرف
حرق
حرك
حرم
حري
حزب
حزم
حزن
حسب
حسم
حسن
حسي
حشد
حشر
حشو
حصة
حصد
حصر
حصص
حصل
حصن
حضر
حضن
حطب
حطت
حطم
حظا
حظر
حظه
حظي
حفت
حفر
حفز
حفص
حفظ
حفل
حقا
حقق
حقل
حقن
حقه
حقي
حكر
حكم
حلا
حلب
حلت
حلف
حلق
حلم
حلو
حما
حمد
حمر
حمص
حمض
حمل
حمو
حمى
حنا
حنب
حنك
حور
حوش
حوض
حول
حيا
حية
حيث
حيز
حين
خاص
خاض
خاف
خال
خام
خان
خبر
خبز
ختم
خجل
خدع
خدم
خذل
خرب
خرج
خرق
خسر
خشب
خشن
خشي
خصص
خصم
خضر
خضع
خضم
خطأ
خطا
خطب
خطة
خطر
خطط
خطف
خطي
خفة
خفت
خفر
خفض
خفف
خفي
خلا
خلت
خلد
خلص
خلط
خلع
خلف
خلق
خلل
خلو
خلي
خمر
خمس
خنا
خنق
خوج
خور
خوض
خوف
خيب
خير
خيط
خيل
خيم
دأب
دار
داع
دام
دان
داو
داي
دبا
دبر
دبى
دبي
دحر
دخل
درء
درا
درب
درج
درس
درع
درك
درو
دست
دشن
دعا
دعت
دعم
دعي
دفع
دفن
دقة
دقت
دكا
دكة
دلت
دلف
دله
دلو
دمج
دمر
دمع
دمه
دمي
دنك
دهب
دهر
دهس
دهم
دهن
دوت
دور
دوس
دوغ
دوق
دوك
دول
دوم
دون
دوي
ديب
دير
ديس
ديف
ديك
ديل
ديم
دين
ديو
ذات
ذاق
ذاك
ذبح
ذرة
ذكر
ذكي
ذلك
ذمة
ذنب
ذهب
ذهن
ذوق
ذوو
ذوي
ذيل
رآه
رأت
رأس
رأى
رأي
راب
راج
راح
راد
راس
راض
راع
راف
راق
راك
رام
راو
راي
ربة
ربح
ربط
ربع
ربك
ربه
ربي
رتب
رجا
رجب
رجح
رجع
رجل
رحب
رحل
رحم
رخص
ردا
ردت
ردد
ردع
ردم
رده
رزق
رسم
رشا
رشح
رشد
رشق
رصد
رصف
رضا
رضو
رضى
رضي
رطل
رعا
رعب
رعت
رعد
رغب
رغد
رغم
رفح
رفض
رفع
رفق
رقص
رقم
رقي
ركب
ركز
ركل
ركن
رمت
رمز
رمق
رمل
رمي
رند
رهن
روا
روب
روت
روث
روج
روح
رود
روز
روس
روش
روض
روك
رول
روم
روى
روي
ريا
ريب
ريت
ريث
ريح
ريز
ريس
ريش
ريع
ريف
ريم
ريو
زاد
زار
زال
زاو
زحف
زحل
زخا
زخم
زرت
زرع
زرق
زعل
زعم
زكا
زكى
زكي
زلت
زمر
زمن
زنة
زهر
زوج
زود
زور
زيا
زيب
زيت
زيد
زيف
زين
سأك
سأل
سئل
سئم
ساب
سات
ساد
سار
ساع
ساف
ساق
سال
سام
سان
ساو
ساي
سبأ
سبا
سبب
سبت
سبر
سبع
سبق
سبل
سبي
ستة
ستر
ستو
سجل
سجن
سحب
سحر
سحق
سخر
سخط
سخي
سدا
سدد
سدر
سرا
سرب
سرت
سرد
سرق
سرى
سري
سطح
سطر
سطو
سعة
سعت
سعد
سعر
سعي
سفح
سفر
سفك
سفن
سقط
سقف
سكة
سكت
سكر
سكك
سكن
سلا
سلب
سلة
سلس
سلط
سلع
سلف
سلك
سلم
سلو
سما
سمح
سمر
سمع
سمك
سمو
سمي
سنا
سنة
سند
سنه
سنو
سني
سهر
سهل
سهم
سهى
سوء
سوا
سود
سور
سوس
سوف
سوق
سوك
سول
سون
سوى
سوي
سيئ
سيب
سيت
سيج
سيد
سير
سيس
سيغ
سيف
سيل
سيم
سين
شأن
شئت
شاء
شاب
شاذ
شار
شاس
شاف
شاق
شال
شام
شان
شاه
شاو
شاي
شبح
شبر
شبك
شبل
شبه
شتا
شتم
شتو
شتى
شجب
شجر
شجع
شحن
شخص
شدة
شدد
شرا
شرب
شرح
شرخ
شرد
شرس
شرط
شرع
شرف
شرق
شرك
شرم
شري
شطب
شطح
شطر
شعب
شعث
شعر
شغب
شغف
شغل
شفا
شفت
شفط
شفق
شقة
شقق
شكا
شكر
شكك
شكل
شلا
شلت
شلح
شلق
شلل
شلو
شلي
شمر
شمس
شمص
شمع
شمل
شنت
شنط
شنه
شهد
شهر
شوب
شور
شوط
شوف
شوق
شوك
شون
شوي
شىء
شيء
شيئ
شيب
شيت
شيخ
شيد
شير
شيع
شيف
شيق
شيك
شيل
شيم
شين
صاح
صار
صاغ
صاف
صام
صان
صاي
صبا
صبح
صبر
صبغ
صبي
صحة
صحت
صحف
صحن
صحى
صحي
صخب
صخر
صدد
صدر
صدق
صدم
صدى
صرب
صرت
صرح
صرخ
صرع
صرف
صعب
صعد
صعق
صغر
صفا
صفة
صفح
صفد
صفر
صفو
صفي
صقر
صقل
صلب
صلة
صلح
صلي
صمت
صمم
صنز
صنع
صنف
صهر
صهو
صوب
صوت
صور
صوغ
صوم
صون
صيت
صيد
صيغ
صيف
ضآل
ضار
ضاع
ضاق
ضال
ضبط
ضجة
ضحك
ضحو
ضخم
ضده
ضرب
ضرر
ضعف
ضغط
ضفة
ضمت
ضمن
ضمه
ضهر
ضوء
ضير
ضيع
ضيف
ضيق
طار
طاش
طاغ
طال
طبخ
طبع
طبق
طبى
طبي
طحن
طرأ
طرب
طرة
طرح
طرد
طرز
طرف
طرق
طره
طري
طعم
طعن
طغت
طفح
طفل
طقس
طلب
طلع
طلق
طلي
طما
طمس
طنا
طوب
طوخ
طور
طوق
طول
طيب
طير
طيف
ظبى
ظبي
ظرف
ظفر
ظلت
ظلم
ظنا
ظني
ظهر
عائ
عاد
عار
عاش
عال
عام
عان
عاي
عبء
عبث
عبد
عبر
عبس
عبق
عبو
عتا
عتب
عثر
عجب
عجز
عجل
عدا
عدة
عدت
عدد
عدس
عدل
عدم
عدن
عدو
عدي
عذب
عذر
عرا
عرب
عرس
عرش
عرض
عرف
عرق
عري
عزب
عزة
عزت
عزز
عزف
عزل
عزم
عسر
عسل
عشب
عشت
عشر
عشق
عصا
عصب
عصر
عصف
عصي
عضو
عطا
عطر
عطش
عطل
عظة
عظم
عفا
عفت
عفو
عقب
عقد
عقر
عقل
عكا
عكر
عكس
علا
علق
علم
علو
على
علي
عما
عمت
عمد
عمر
عمق
عمل
عمن
عمه
عمي
عند
عنه
عهد
عود
عوز
عوض
عوف
عون
عوي
عيب
عيد
عيش
عين
غاب
غار
غاز
غال
غان
غاو
غاي
غبي
غدا
غدت
غدر
غرب
غرة
غرس
غرض
غرف
غرق
غرم
غرو
غري
غزا
غزة
غزت
غزل
غزو
غسل
غصن
غضب
غطت
غلا
غلب
غلط
غلف
غلق
غلو
غلي
غمر
غنت
غنى
غني
غوت
غوث
غود
غور
غوش
غول
غون
غيب
غيث
غير
غيض
فأر
فأس
فأم
فأن
فأي
فإن
فئة
فات
فار
فاز
فاس
فاق
فال
فان
فاي
فتح
فتم
فتن
فتى
فثم
فجر
فحت
فحص
فحل
فخذ
فخر
فدا
فدع
فذة
فرا
فرج
فرح
فرد
فرز
فرس
فرش
فرص
فرض
فرط
فرع
فرغ
فرق
فرن
فرو
فري
فزت
فزع
فسأ
فست
فسح
فسخ
فسر
فسن
فسي
فشل
فصل
فضة
فضح
فضل
فضي
فطر
فعد
فعل
فعن
ففي
فقد
فقر
فقط
فقل
فقه
فكر
فكل
فكم
فلا
فلت
فلس
فلك
فلم
فلن
فله
فلو
فلي
فما
فمت
فمر
فمع
فمك
فمن
فمه
فنا
فنج
فند
فنر
فنس
فنص
فنه
فنى
فني
فهد
فهذ
فهر
فهل
فهم
فهو
فهى
فهي
فوت
فوج
فود
فور
فوز
فوس
فوض
فوغ
فوق
فوك
فول
فون
فوه
فيه
قاب
قاد
قار
قاس
قاض
قاع
قال
قام
قبة
قبر
قبض
قبل
قبو
قتل
قدر
قدم
قذف
قرأ
قرا
قرب
قرد
قرر
قرش
قرص
قرض
قرع
قرق
قرن
قرى
قري
قزح
قزي
قسط
قسم
قصب
قصة
قصد
قصر
قصص
قصف
قصي
قضت
قضم
قضى
قضي
قطب
قطر
قطع
قطف
قطن
قعر
قفا
قفز
قفص
قفل
قلب
قلة
قلت
قلد
قلص
قلع
قلق
قلل
قلم
قمة
قمت
قمح
قمر
قمع
قمم
قنا
قنب
قند
قنص
قهر
قوة
قوت
قوس
قول
قوم
قوى
قوي
قيد
قيس
قيل
قيم
كأس
كأم
كأن
كأي
كاب
كات
كاد
كار
كاز
كاس
كاش
كاف
كال
كام
كان
كاي
كبح
كبد
كبر
كبش
كبق
كتب
كتف
كتل
كتم
كثب
كثر
كثف
كجم
كجن
كجه
كحد
كحق
كحل
كخط
كدا
كدر
كدع
كده
كدي
كذا
كذب
كرا
كرب
كرة
كرت
كرد
كرر
كرس
كرك
كرم
كره
كرو
كري
كسب
كسر
كشر
كشف
كشك
كعب
كعك
كعم
كفا
كفت
كفر
كفل
كفى
كقر
كقو
ككل
كلغ
كلف
كلم
كله
كما
كمن
كنا
كنت
كنج
كنز
كنس
كنف
كهر
كهف
كهل
كوا
كوب
كوت
كوج
كوخ
كود
كور
كوز
كوس
كوش
كوف
كوك
كول
كوم
كون
كوي
كيب
كيت
كيد
كير
كيس
كيف
كيل
كيم
كين
كيه
كيو
لآل
لأب
لأر
لأم
لأن
لأو
لأي
لؤي
لإن
لإي
لاس
لان
لبث
لبد
لبر
لبس
لبط
لبع
لبق
لبك
لبن
لبو
لبي
لتأ
لتؤ
لتب
لتت
لتج
لتح
لتخ
لتد
لتر
لتس
لتش
لتص
لتض
لتع
لتغ
لتف
لتق
لتك
لتل
لتم
لتن
لتو
لجأ
لجد
لجر
لجل
لجم
لجن
لجو
لحب
لحث
لحج
لحد
لحص
لحض
لحظ
لحق
لحل
لحم
لحن
لحي
لخص
لخط
لخو
لخي
لدر
لدع
لدغ
لدن
لدو
لدى
لدي
لذا
لذو
لرأ
لرب
لرد
لرش
لرف
لرو
لزم
لزي
لسا
لسب
لست
لسد
لسر
لسع
لسك
لسل
لسم
لسن
لسه
لسو
لسي
لشر
لشق
لشن
لشو
لصب
لصح
لصد
لصف
لضخ
لضم
لطا
لطب
لطف
لطل
لطو
لطي
لعب
لعد
لعر
لعز
لعل
لعم
لعو
لغة
لغز
لغط
لغم
لغو
لفت
لفر
لفض
لفظ
لفق
لفك
لفن
لقا
لقب
لقد
لقر
لقص
لقن
لقي
لكح
لكل
لكم
لكن
لكي
للأ
للإ
للا
للب
للح
للخ
للس
للص
للف
للق
للم
لله
لما
لمح
لمد
لمس
لمن
لنا
لنس
لنص
لها
لهم
لوب
لوح
لود
لور
لوز
لوس
لوف
لوك
لون
لوي
ليب
ليت
ليج
ليد
لير
ليس
ليش
ليغ
ليف
ليك
ليل
لين
ليو
مآس
مآل
مئة
ماء
مار
ماض
ماك
مبت
مبخ
مبد
متح
متر
متع
متق
متك
متم
متن
متى
مثل
مجد
مجر
مجز
مجل
محا
محب
محت
محج
محد
محض
محط
محق
محل
محو
محي
مخز
مخل
مدة
مدح
مدد
مدر
مدن
مدى
مدي
مرأ
مرا
مرة
مرت
مرج
مرح
مرد
مرر
مرض
مرق
مري
مزج
مزر
مزي
مسا
مست
مسح
مسخ
مسر
مسق
مسك
مسن
مشب
مشف
مشي
مصب
مصح
مصر
مصف
مصل
مضت
مضر
مضض
مضى
مضي
مطا
مطب
مطر
مطل
معه
مغر
مفا
مفت
مفر
مقر
مقص
مقل
مقو
مكب
مكة
مكث
مكر
مكى
مكي
ملأ
ملئ
ملا
ملت
ملح
ملص
ملغ
ملف
ملق
ملك
ملم
ملو
ملي
مما
ممر
ممن
منح
منذ
منه
مها
مهب
مهت
مهج
مهد
مهر
مهل
مهم
مهن
مهى
مهي
موا
موت
موج
مود
مور
موز
موس
موش
موض
موغ
موف
موك
مول
مون
ميا
ميت
ميث
ميج
ميخ
ميد
مير
ميز
ميس
ميش
ميغ
ميك
ميل
مين
ميو
نأت
ناب
ناج
ناح
ناد
نار
ناز
ناس
ناش
ناغ
ناف
نال
ناي
نبأ
نبت
نبد
نبذ
نبر
نبض
نبع
نبه
نبو
نبي
نتج
نتح
نتس
نتف
نتو
نثر
نثق
نجا
نجت
نجح
نجد
نجع
نجل
نجم
نحب
نحت
نحر
نحس
نحل
نحم
نحن
نحو
نخب
نخش
نخل
ندا
ندب
ندد
ندر
ندع
ندى
نذر
نرب
نرح
نرد
نرى
نري
نزح
نزع
نزف
نزل
نسب
نست
نسج
نسخ
نسر
نسع
نسف
نسق
نسل
نسم
نسي
نشأ
نشب
نشر
نشط
نشك
نصا
نصب
نصت
نصح
نصر
نصف
نصل
نصه
نضج
نضع
نظر
نظل
نظم
نظن
نعت
نعد
نعز
نعش
نعط
نعم
نعي
نغم
نفت
نفخ
نفد
نفذ
نفر
نفس
نفض
نفط
نفع
نفق
نفى
نفي
نقد
نقر
نقش
نقص
نقض
نقط
نقع
نقف
نقل
نقي
نكد
نكن
نلق
نمت
نمر
نمط
نمو
ننت
ننس
نهب
نهج
نهد
نهر
نهض
نهى
نهي
نوا
نوب
نوت
نوح
نود
نور
نوع
نوف
نوم
نوه
نوي
نيت
نير
نيس
نيغ
نيف
نيك
نيل
نيو
هات
هاج
هار
هاس
هاف
هال
هام
هان
هاو
هاي
هبة
هبت
هبط
هتف
هجر
هجم
هدا
هدد
هدر
هدف
هدم
هدى
هدي
هذا
هذه
هرب
هرم
هزة
هزت
هزم
هشة
هضم
هطل
هلا
هما
همس
هنأ
هنا
هند
هيغ
وآب
وآل
وآن
وآي
وأب
وأج
وأح
وأخ
وأد
وأر
وأز
وأس
وأع
وأف
وأل
وأم
وأن
وأو
وأي
وإد
وإذ
وإن
وإي
واب
واج
واح
واخ
واد
واذ
وار
واس
واش
واط
واع
واف
واق
واك
وال
وان
وبأ
وبإ
وبا
وبت
وبث
وبخ
وبد
وبر
وبس
وبع
وبل
وبم
وبن
وبه
وبو
وبي
وتأ
وتب
وتت
وتخ
وتر
وتش
وتع
وتف
وتل
وتم
وتن
وتو
وثق
وثم
وجا
وجب
وجد
وجر
وجع
وجل
وجن
وجه
وجو
وجي
وحب
وحث
وحج
وحد
وحر
وحس
وحش
وحض
وحق
وحك
وحل
وحم
وحي
وخز
وخص
وخط
وخل
ودب
ودع
ودق
ودل
ودم
وده
ودو
ودي
وذم
وذو
وذي
ورا
ورب
ورث
ورد
ورش
ورص
ورط
ورع
ورق
ورم
ورو
وزر
وزع
وزن
وزو
وسأ
وسا
وسب
وست
وسج
وسد
وسر
وسط
وسع
وسل
وسم
وسن
وسو
وسي
وشا
وشب
وشح
وشد
وشر
وشف
وشق
وشك
وشل
وشم
وشن
وشو
وصب
وصح
وصد
وصف
وصل
وصم
وضح
وضخ
وضد
وضع
وضم
وطا
وطب
وطن
وطه
وظل
وظن
وعب
وعج
وعد
وعر
وعز
وعط
وعف
وعل
وعم
وعن
وعو
وعي
وغد
وغر
وغو
وفا
وفت
وفد
وفر
وفض
وفق
وفك
وفن
وفى
وفي
وقت
وقد
وقر
وقص
وقع
وقف
وقل
وكا
وكر
وكف
وكل
وكم
وكن
وكو
وكي
ولأ
ولئ
ولا
ولج
ولد
ولش
ولع
ولف
ولك
ولم
ولن
وله
ولو
ولي
ومؤ
وما
ومت
ومج
ومح
ومخ
ومد
ومر
ومز
ومس
ومش
ومص
ومض
ومع
ومغ
ومق
ومك
ومن
ومو
ونا
ونت
ونس
ونش
ونص
ونق
ونو
وهب
وهج
وهد
وهذ
وهز
وهل
وهم
وهن
وهو
وهى
وهي
وود
وول
ويؤ
ويا
ويب
ويت
ويح
ويد
وير
ويس
ويش
ويف
ويك
ويل
ويم
ويه
ويو
يأب
يأت
يأس
يؤد
يؤذ
يؤم
يئس
يئن
ياخ
ياس
ياف
يبت
يبث
يبد
يبغ
يبق
يبل
يبن
يتح
يتم
يثق
يجب
يجد
يجر
يجز
يجف
يجل
يجن
يجي
يحب
يحث
يحد
يحز
يحس
يحض
يحط
يحظ
يحق
يحل
يحن
يحو
يحي
يخت
يخص
يخض
يخف
يخل
يدا
يدر
يدع
يدق
يدك
يدل
يده
يدي
يذق
يرث
يرد
يرض
يرف
يرق
يرم
يرى
يري
يزج
يزد
يزل
يزن
يسب
يست
يسد
يسر
يسع
يسم
يشأ
يشد
يشر
يشع
يشف
يشق
يشك
يشن
يشي
يصب
يصح
يصد
يصر
يصغ
يصف
يصل
يضح
يضخ
يضر
يضع
يضف
يضل
يضم
يطل
يظل
يظن
يعج
يعد
يعر
يعز
يعش
يعط
يعف
يعل
يعم
يعن
يعي
يغب
يغر
يغض
يغط
يفت
يفد
يفر
يفز
يفض
يفك
يقر
يقص
يقض
يقظ
يقع
يقف
يقل
يقم
يقي
يكد
يكف
يكن
يلب
يلت
يلج
يلح
يلغ
يلف
يلق
يلي
يمت
يمح
يمد
يمر
يمس
يمش
يمض
يمل
يمن
ينأ
ينا
ينج
ينح
ينس
ينص
ينع
ينف
ينق
ينه
يهب
يهد
يهز
يهم
يهو
يود
يور
يوص
يول
يوم
٢٠٠
٢٠١
##(1
##(2
##00
##01
##02
##03
##04
##05
##06
##07
##08
##09
##1%
##10
##11
##12
##13
##14
##15
##16
##17
##18
##19
##2%
##20
##21
##22
##23
##24
##25
##26
##27
##28
##29
##3%
##30
##31
##32
##33
##34
##35
##36
##37
##38
##39
##4%
##40
##41
##42
##43
##44
##45
##46
##47
##48
##49
##5%
##50
##51
##52
##53
##54
##55
##56
##57
##58
##59
##6%
##60
##61
##62
##63
##64
##65
##66
##67
##68
##69
##7%
##70
##71
##72
##73
##74
##75
##76
##77
##78
##79
##8%
##80
##81
##82
##83
##84
##85
##86
##87
##88
##89
##9%
##90
##91
##92
##93
##94
##95
##96
##97
##98
##99
##AA
##AB
##AC
##AD
##AM
##AP
##AS
##AT
##BA
##BC
##BI
##BS
##CA
##CC
##CD
##CI
##CS
##CT
##Cl
##DA
##DP
##DS
##IA
##IC
##ID
##IM
##IP
##IS
##IT
##MA
##MC
##MI
##MP
##MS
##MT
##PA
##PC
##PI
##PS
##SA
##SB
##SC
##SD
##SI
##SM
##SP
##SS
##ST
##TA
##TC
##TI
##TM
##TS
##aa
##ab
##ac
##ad
##ae
##ag
##ah
##al
##am
##an
##ap
##ar
##as
##at
##au
##ay
##ba
##be
##bi
##bo
##br
##bu
##by
##ca
##ce
##ch
##ci
##co
##cy
##da
##de
##di
##dy
##ea
##eb
##ec
##ed
##ee
##eg
##el
##em
##en
##ep
##er
##es
##et
##eu
##ey
##ga
##ge
##gi
##go
##gu
##ha
##he
##hi
##ho
##hy
##ia
##ib
##ic
##id
##ie
##ig
##il
##im
##in
##io
##ip
##ir
##is
##it
##la
##ld
##le
##li
##ll
##lo
##lu
##ly
##ma
##mb
##me
##mi
##mm
##mo
##mp
##ms
##na
##nc
##nd
##ne
##ng
##ni
##no
##ns
##ob
##oc
##od
##og
##ol
##om
##on
##oo
##op
##or
##os
##ot
##ou
##pe
##ph
##po
##pp
##ps
##ra
##re
##ri
##ro
##ru
##ry
##se
##sh
##si
##sp
##ss
##st
##ta
##te
##th
##ti
##to
##ts
##tu
##ty
##ub
##uc
##ud
##ue
##ug
##ui
##ul
##um
##un
##up
##ur
##us
##ut
##ya
##yl
##ys
##آت
##آس
##آل
##آن
##آي
##أس
##أم
##أن
##أو
##أي
##ؤس
##ؤه
##ؤو
##إذ
##إس
##إم
##إن
##إي
##ئة
##ئد
##ئذ
##ئن
##ئه
##ئي
##اء
##ائ
##ات
##اذ
##ان
##بث
##بد
##بر
##بط
##بع
##بن
##به
##بي
##تر
##تز
##تش
##تم
##ته
##ثر
##ثق
##ثم
##جئ
##جب
##جد
##جر
##جز
##جع
##جل
##جم
##جه
##جو
##جي
##حب
##حة
##حت
##حث
##حد
##حر
##حس
##حص
##حض
##حط
##حق
##حل
##حي
##خا
##خت
##خد
##خذ
##خر
##خش
##خص
##خض
##خط
##خف
##خل
##خو
##خي
##دة
##در
##دى
##دي
##ذا
##ذر
##ذو
##ذى
##ذي
##رب
##رة
##رج
##رد
##رز
##رس
##رش
##رض
##رغ
##رق
##رك
##رى
##ري
##زة
##زج
##زر
##زع
##زي
##سب
##ست
##سخ
##سر
##سك
##سي
##شئ
##شد
##شر
##شط
##شق
##شك
##شي
##صب
##صة
##صح
##صد
##صر
##صف
##صل
##ضح
##ضخ
##ضد
##ضر
##ضع
##ضم
##ضى
##ضي
##طب
##طة
##طر
##طف
##طق
##طن
##طه
##طي
##ظل
##عد
##عز
##عش
##عض
##عن
##غذ
##غر
##غز
##غش
##غض
##غط
##غو
##غي
##فخ
##فر
##فض
##فظ
##فق
##فى
##في
##قب
##قة
##قت
##قد
##قر
##قص
##قض
##قط
##قع
##قف
##قل
##قى
##قي
##كر
##كس
##كل
##كم
##كي
##لا
##لق
##لك
##لم
##له
##لى
##ما
##مر
##مس
##مع
##من
##ها
##هم
##هو
##وج
##ور
##وز
##وس
##وض
##وق
##ون
##ىء
##ية
##يث
##يد
##ير
##يز
##يس
##يش
##يض
##ين
##٠٠
##٠١
##٠٢
##٢٠
(.)"
10.0
10.2
10.3
10.5
10.6
10.7
10.8
11.3
11.4
11.5
1100
12.5
1200
1250
13.5
1300
14.5
1400
1420
1421
1422
1423
1424
1425
1426
1427
1428
1429
1430
1431
1432
1433
1434
1435
1500
1559
16.5
1600
17.5
1700
1701
1800
1860
1882
1889
1890
1896
1897
1898
1899
1900
1901
1902
1903
1904
1905
1906
1907
1908
1909
1910
1911
1912
1913
1914
1915
1916
1917
1918
1919
1920
1921
1922
1923
1924
1925
1926
1927
1928
1929
1930
1931
1932
1933
1934
1935
1936
1937
1938
1939
1940
1941
1942
1943
1944
1945
1946
1947
1948
1949
1950
1951
1952
1953
1954
1955
1956
1957
1958
1959
1960
1961
1962
1963
1964
1965
1966
1967
1968
1969
1970
1971
1972
1973
1974
1975
1976
1977
1978
1979
1980
1981
1982
1983
1984
1985
1986
1987
1988
1989
1990
1991
1992
1993
1994
1995
1996
1997
1998
2001
2002
2003
2004
2005
2006
2007
2008
2009
2010
2011
2012
2013
2014
2015
2016
2017
2018
2019
2020
2021
2022
2025
2030
2050
2100
2200
2300
2400
2500
2600
2700
2800
3200
3500
4500
6500
7500
Arab
Comp
audi
time
آباء
آباد
آبار
آتية
آثار
آجال
آجلا
آداب
آذار
آذان
آراء
آرثر
آسيا
آفاق
آلات
آلاف
آلام
آلان
آلمه
آلهة
آليا
آلية
آمال
آمنا
آمنة
آمنو
آمون
آمين
آنفا
آنية
آيات
آيار
آيرس
أؤكد
أؤيد
أئمة
أباد
أبان
أبحث
أبحر
أبدأ
أبدا
أبدت
أبدع
أبدو
أبدي
أبرز
أبرم
أبسط
أبشع
أبصر
أبطأ
أبطل
أبعد
أبقت
أبلغ
أبها
أبيب
أبيض
أبين
أبيه
أتاح
أترك
أتفق
أتقن
أتمت
أتوا
أتوج
أتون
أتيت
أتيح
أثاث
أثار
أثبت
أثرا
أثرت
أثره
أثري
أثقل
أثمر
أثنى
أثير
أجاب
أجاد
أجاز
أجبت
أجبر
أجرة
أجرت
أجرو
أجري
أجزم
أجلت
أجله
أجمع
أجمل
أجهز
أجور
أجيب
أحاط
أحال
أحبط
أحبك
أحبه
أحجم
أحدا
أحدث
أحرج
أحرز
أحرص
أحرق
أحسب
أحسن
أحصل
أحضر
أحقق
أحكم
أحلك
أحلم
أحلى
أحمد
أحمر
أحمل
أحوج
أحيا
أحيت
أحيط
أحيل
أحيي
أخاف
أخاه
أخبر
أخته
أختي
أخذت
أخذو
أخرج
أخرى
أخري
أخضر
أخضع
أخطأ
أخطر
أخفق
أخفي
أخلت
أخلص
أخوة
أخوه
أخير
أخيه
أداء
أداة
أدار
أدام
أدان
أداه
أدبي
أدخل
أدرج
أدرس
أدرك
أدرى
أدري
أدعو
أدفع
أدلة
أدلت
أدنو
أدنى
أدني
أدهش
أدهم
أدوا
أديب
أديت
أديس
أدين
أذاع
أذان
أذكر
أذهب
أذهل
أذون
أذيع
أراب
أراد
أراض
أراك
أراه
أربع
أربك
أرجأ
أرجع
أرجل
أرجو
أرحب
أرخص
أردت
أرست
أرسل
أرشد
أرضا
أرضه
أرضي
أرغب
أرغم
أرفض
أرفع
أرفق
أرقى
أرهق
أروع
أروى
أريج
أريد
أريك
أزاح
أزال
أزرق
أزعج
أزمة
أزمت
أزور
أزيد
أسأل
أساء
أساس
أسام
أستر
أسجل
أسرة
أسرت
أسرع
أسرى
أسست
أسسه
أسطح
أسعد
أسفر
أسفل
أسفه
أسقط
أسقف
أسكن
أسلم
أسمر
أسمع
أسند
أسهل
أسهم
أسوأ
أسود
أسير
أشاد
أشار
أشاع
أشبه
أشرت
أشرف
أشرك
أشعة
أشعر
أشعل
أشكر
أشمل
أشهد
أشهر
أشير
أشيع
أصاب
أصبت
أصبح
أصدر
أصدق
أصرت
أصعب
أصغر
أصفر
أصلا
أصول
أصيب
أصيل
أضاع
أضاف
أضحت
أضحى
أضخم
أضرب
أضرت
أضعف
أضيف
أضيق
أطاح
أطال
أطرح
أطلب
أطلس
أطلع
أطلق
أطول
أطيب
أظهر
أعاد
أعاق
أعان
أعبر
أعتز
أعجب
أعدت
أعدم
أعده
أعرب
أعرض
أعرف
أعرق
أعشق
أعطت
أعطو
أعطي
أعظم
أعقب
أعلم
أعلن
أعلى
أعلي
أعمق
أعمل
أعمى
أعنف
أعني
أعود
أعيد
أعيش
أعين
أغار
أغان
أغرب
أغضب
أغفل
أغلب
أغلق
أغلى
أغنى
أغني
أفاد
أفاق
أفرج
أفرز
أفرع
أفرغ
أفري
أفسد
أفشل
أفصح
أفضت
أفضل
أفعل
أفقد
أفقر
أفكر
أفلا
أفلت
أفلح
أفهم
أفيد
أقال
أقام
أقبل
أقدر
أقدم
أقرأ
أقرب
أقرت
أقره
أقسم
أقسى
أقصد
أقصر
أقصى
أقصي
أقضي
أقفل
أقنع
أقول
أقوم
أقوى
أقيل
أقيم
أكاد
أكان
أكبر
أكتب
أكتر
أكثر
أكدت
أكده
أكرر
أكرم
أكره
أكسب
أكمل
أكوا
أكون
أكيد
ألاف
ألان
ألبس
ألبي
ألحق
ألزم
ألست
ألسن
ألعب
ألغت
ألغى
ألغي
ألفا
ألفي
ألقت
ألقو
ألقي
ألما
ألمح
ألمع
ألوف
ألوم
أليس
أليف
أليم
أمام
أمان
أمبو
أمتع
أمثل
أمجد
أمرا
أمرت
أمره
أمضت
أمضى
أمكن
أملا
أملك
أمله
أممي
أمنى
أمني
أمها
أموت
أمور
أمية
أمير
أميل
أمين
أناس
أنتج
أنتم
أنثى
أنجح
أنجز
أنزل
أنسى
أنشأ
أنشئ
أنصح
أنظر
أنعم
أنفق
أنفه
أنقذ
أنكر
أنكم
أننا
أنني
أنها
أنهم
أنور
أنيس
أهان
أهتم
أهدر
أهدي
أهلا
أهله
أهلي
أهنئ
أوبك
أوتو
أوجد
أوجه
أودت
أودع
أودى
أودي
أورد
أورو
أوري
أوسط
أوسع
أوصت
أوصل
أوصى
أوصي
أوضح
أوفد
أوفر
أوقع
أوقف
أولا
أولى
أولي
أويل
أياد
أيار
أيام
أيدت
أيده
أيدي
أيسر
أيضا
أيقظ
أيمن
أيها
أيوب
إبان
إثني
إحدى
إحدي
إحنا
إخوة
إدار
إدفو
إدلب
إراح
إراق
إريك
إزاء
إزاح
إزاى
إسحق
إسنا
إصبع
إطاح
إطار
إلهي
إليك
إليه
إمام
إميل
إناث
إنبى
إنبي
إنتر
إنتل
إنما
إننا
إنها
إنهم
إهدن
إياب
إياد
إياك
إياه
إيتا
إيتو
إيدي
إيسا
إيست
إيفر
إيكو
إيلي
إيما
إيمي
إينو
اباد
ابان
ابحث
ابدأ
ابدا
ابدت
ابدو
ابرز
ابسط
ابعد
ابلغ
ابنة
ابنه
ابنى
ابني
ابيب
ابيض
اتاح
اتبع
اتجه
اتحد
اتخذ
اترك
اتسع
اتسم
اتصل
اتضح
اتفق
اتمن
اتهم
اثار
اثبت
اثمر
اثني
اثير
اجاب
اجبر
اجرت
اجري
اجعل
اجمع
اجمل
اجنح
اجند
اجور
احاط
احال
احبط
احتج
احتف
احتل
احتو
احدا
احدث
احذر
احرز
احرص
احرق
احسن
احضر
احقي
احمد
احمر
احمل
احنا
احيل
اخبر
اختر
اختص
اختل
اخذت
اخرج
اخرى
اخضر
اخطأ
اخطر
اخفق
اخلا
اخيه
اداء
ادار
ادام
ادان
ادبي
ادخل
ادرج
ادرك
ادري
ادعت
ادعو
ادعى
ادلب
اديب
اديس
اذار
اذكر
اذهب
اراء
اراح
اراد
اراض
ارام
اربع
اربك
ارتأ
ارتد
ارتض
ارتق
ارجأ
ارجع
ارجو
ارحل
ارحم
اردت
ارسل
ارضه
ارغب
ارفض
ارفع
اروع
اروق
اريح
اريد
اريك
ازاء
ازال
اسأل
اساء
اساس
استر
استع
استق
استو
اسحق
اسرة
اسرع
اسعد
اسفر
اسفل
اسفه
اسقط
اسكت
اسكن
اسما
اسمع
اسمه
اسمي
اسند
اسهل
اسهم
اسود
اسيا
اسير
اشاد
اشار
اشاع
اشبه
اشتد
اشتر
اشتك
اشرف
اشرك
اشعر
اشعل
اشكر
اشهر
اصاب
اصبح
اصبع
اصدر
اصدق
اصطف
اصعب
اصغر
اصلا
اصول
اصيب
اصيل
اضاع
اضاف
اضطر
اضعف
اضغط
اضيف
اطاح
اطار
اطال
اطلب
اطلع
اطلق
اظهر
اعاد
اعان
اعتد
اعتر
اعتز
اعتل
اعجب
اعدت
اعرب
اعرف
اعطت
اعظم
اعلم
اعلن
اعمد
اعمل
اعيد
اعيش
اعين
اغلب
اغلق
افاد
افاق
افتح
افرج
افرز
افري
افضل
افعل
افقد
افكر
افهم
اقام
اقتض
اقتل
اقتن
اقدر
اقدم
اقرأ
اقرب
اقرت
اقصد
اقصى
اقفل
اقنع
اقول
اقوم
اقيم
اكبر
اكتب
اكتف
اكثر
اكدت
اكرم
اكمل
اكوا
اكون
اكيد
الآف
الآن
الآي
الأب
الأح
الأخ
الأر
الأز
الأس
الأش
الأع
الأغ
الأف
الأق
الأك
الأل
الأم
الأن
الأو
الأي
الإس
الإن
الإي
الاب
الاخ
الار
الاس
الاف
الام
الان
البا
البت
البث
البج
البر
البز
البس
البش
البص
البط
البغ
البق
البك
البل
البن
البه
البو
البي
التأ
التب
التج
التح
التخ
التر
التس
التش
التع
التف
التق
التك
التل
التم
التن
التو
التى
التي
الثم
الجا
الجب
الجح
الجد
الجر
الجش
الجع
الجل
الجم
الجن
الجه
الجو
الحا
الحب
الحث
الحج
الحد
الحر
الحس
الحش
الحص
الحظ
الحف
الحق
الحل
الحم
الحو
الحى
الحي
الخث
الخد
الخر
الخش
الخص
الخط
الخل
الخن
الدا
الدب
الدح
الدر
الدش
الدع
الدغ
الدف
الدق
الدك
الدل
الدم
الدن
الده
الدو
الدي
الذر
الذى
الذي
الرب
الرخ
الرد
الرز
الرس
الرش
الرف
الرق
الرم
الرو
الرى
الري
الزج
الزر
الزغ
الزل
الزم
الزي
السا
السب
الست
السد
السر
السف
السل
السم
السن
السو
السي
الشا
الشب
الشح
الشد
الشر
الشط
الشع
الشق
الشك
الشم
الشه
الشو
الشي
الصب
الصح
الصد
الصع
الصف
الصل
الصم
الصن
الضب
الضخ
الضر
الضم
الطب
الطر
الطل
الطن
الطو
الظل
الظن
العا
العب
العت
العج
العد
العر
العز
العس
العش
العص
العض
العف
العق
العك
العل
العم
العن
العو
العي
الغب
الغث
الغد
الغر
الغش
الغص
الغض
الغم
الغو
الغي
الفا
الفج
الفخ
الفذ
الفر
الفك
الفل
الفن
الفي
القب
القت
القد
القر
القس
القش
القص
القض
القط
القل
القم
القن
القو
القى
القي
الكا
الكب
الكد
الكر
الكس
الكش
الكف
الكل
الكم
الكن
الكو
الكي
اللا
اللب
اللج
اللص
اللف
الله
اللو
اللى
اللي
المؤ
الما
المب
المت
المج
المح
المخ
المد
المر
المز
المس
المش
المص
المط
المع
المغ
المف
المق
المك
المل
المن
المه
المو
المي
النا
النب
النت
النج
النخ
الند
النس
النش
النص
النع
النف
النق
النو
الني
الهب
الهد
الهذ
الهر
الهز
الهش
الهل
الهم
الهن
الهو
الهي
الوا
الوج
الود
الور
الوط
اليد
اليز
اليس
اليك
اليه
اليو
امام
امان
امتد
امرا
امكن
املا
املك
امله
امنه
امني
امور
امير
اميل
امين
اناس
انتج
انتر
انتم
انجز
اندي
انزل
انشأ
انشق
انضم
انظر
انفك
انقذ
انما
اننا
انها
انهم
انور
اهتز
اهتم
اهدر
اهله
اوبك
اوتو
اوجد
اوجه
اودع
اورب
اورد
اوري
اوسع
اوصت
اوصل
اوضح
اوقع
اوقف
اولا
اولى
اولي
اوني
اويل
اياب
اياد
ايام
اياه
ايبا
ايتا
ايتو
ايدي
ايذا
ايرس
ايرو
ايزي
ايست
ايضا
ايفو
ايكو
ايكي
ايلا
ايلي
ايما
ايمر
ايمن
ايمي
اينت
اينو
ايني
ايها
ايوا
ايوب
بآخر
بآلي
بأبه
بأبو
بأبي
بأثر
بأجر
بأحد
بأحر
بأخذ
بأدب
بأذى
بأرض
بأسر
بأقل
بألا
بألف
بألم
بأمر
بأمس
بأمل
بأمن
بأنك
بأنن
بأنه
بأهل
بأول
بإذن
بإسم
بائع
بابا
بابل
بابن
باتت
باحت
باحث
باحد
باخش
بادئ
بادر
بادي
باذن
بارا
بارت
بارد
بارز
بارس
بارع
بارك
بارو
باري
بازل
باست
باسل
باسم
باشا
باشر
باطل
باطن
باعت
باعث
بافل
باقر
باقي
باكس
باكو
بالأ
بالإ
بالا
بالب
بالت
بالج
بالخ
بالر
بالز
بالس
بالش
بالص
بالغ
بالف
بالق
بالك
بالم
بالو
بالي
بامب
باند
بانه
باهت
باهر
باهظ
باور
باول
بايت
باير
بايل
بباب
بباق
ببال
ببحث
ببذل
ببرج
ببضع
ببطء
ببعض
ببقي
ببلد
ببنك
ببني
ببيت
ببيع
بتاع
بترا
بترك
بترو
بتسع
بتلك
بتهم
بتوع
بثته
بثقة
بثمن
بثها
بثوب
بجبل
بجدة
بجرح
بجرم
بجزء
بجسم
بجعل
بجلب
بجلد
بجمع
بجمل
بجهد
بجود
بجيش
بحار
بحال
بحبس
بحبك
بحبل
بحتة
بحثا
بحثت
بحثه
بحجر
بحجز
بحجم
بحدة
بحذر
بحذف
بحرا
بحرب
بحرص
بحرق
بحري
بحزب
بحزم
بحزن
بحسب
بحسم
بحسن
بحصر
بحظر
بحفر
بحفظ
بحفل
بحقه
بحكم
بحلب
بحلق
بحمد
بحمص
بحمل
بحوث
بحوز
بحول
بحيث
بخبر
بخرق
بخصم
بخطأ
بخطر
بخطط
بخطف
بخفة
بخفض
بخلق
بخمس
بخوض
بخيت
بخير
بدءا
بدأت
بداء
بدار
بدبي
بدرج
بدعة
بدعم
بدعو
بدفع
بدفن
بدقة
بدلا
بدمج
بدنا
بدور
بدول
بدون
بدوى
بدوي
بدير
بديع
بديل
بدين
بذات
بذبح
بذكر
بذلت
بذلك
بذله
بذلو
بذور
بذوي
برأت
برأس
برأي
برؤي
براء
براد
براغ
براق
براك
بران
بربر
بربط
بربع
برجل
بردى
بررت
برزت
برسم
برشق
برصد
برضا
برضه
برغم
برفح
برفض
برفع
برفق
برقم
بركب
بركة
برمج
برمي
برنت
برنس
بروج
بروح
برود
بروز
بروس
بروك
بروم
برون
بريء
برية
بريت
بريد
بريس
بريش
بريف
بريق
بريك
بزرع
بزعم
بزمن
بزنس
بزوج
بزوغ
بساط
بسام
بسبب
بسبع
بسجل
بسجن
بسحب
بسعة
بسعر
بسفر
بسلب
بسمة
بسمع
بسمو
بسنة
بسند
بسوء
بسور
بسوق
بسيد
بسير
بسيط
بشأن
بشار
بشان
بشبه
بشتى
بشخص
بشدة
بشرح
بشرط
بشرف
بشرق
بشرى
بشري
بشطب
بشعب
بشعة
بشعر
بشغف
بشكل
بشلل
بشهر
بشور
بشىء
بشيء
بشير
بصال
بصدد
بصدر
بصدق
بصرف
بصره
بصري
بصفة
بصلة
بصمة
بصمت
بصنع
بصوت
بصور
بصيص
بضبط
بضرب
بضعف
بضغط
بطان
بطبع
بطبق
بطرح
بطرد
بطرس
بطرف
بطرق
بطعم
بطعن
بطفل
بطلا
بطلب
بطلة
بطلق
بطنه
بطول
بطون
بطيء
بطيخ
بعام
بعثة
بعثت
بعجز
بعدد
بعدم
بعرب
بعرض
بعرف
بعزل
بعزم
بعشر
بعصا
بعقد
بعقل
بعكس
بعلم
بعمر
بعمق
بعمل
بعنف
بعهد
بعود
بعون
بعيد
بعين
بغرب
بغرض
بغرف
بغزة
بغزو
بغسل
بغضب
بغلق
بغير
بغيض
بفئة
بفتح
بفحص
بفخر
بفرح
بفرص
بفرض
بفرع
بفرق
بفسخ
بفشل
بفصل
بفضل
بفعل
بفقر
بفكر
بفوز
بقاء
بقاع
بقال
بقتل
بقدر
بقدم
بقرب
بقرى
بقسم
بقصد
بقصر
بقصف
بقطر
بقطع
بقلب
بقلق
بقلم
بقمع
بقنا
بقوا
بقوة
بقول
بقية
بقيت
بقيم
بكأس
بكاء
بكار
بكاف
بكرة
بكرى
بكري
بكسر
بكشف
بكفر
بكون
بكين
بلاد
بلاس
بلاط
بلاغ
بلاك
بلال
بلان
بلاي
بلجر
بلدا
بلدة
بلده
بلدى
بلدي
بلطف
بلعب
بلغت
بلقب
بلمس
بلهج
بلور
بلوغ
بلوك
بلوم
بلون
بلير
بليغ
بماء
بمثل
بمجل
بمحض
بمحل
بمدن
بمرض
بمسح
بمصر
بمعن
بمقر
بملف
بمنأ
بمنج
بمنح
بمنع
بمهم
بمهن
بموت
بموج
بناء
بنات
بنار
بناه
بنحو
بندا
بندر
بنزع
بنسب
بنشر
بنصر
بنصف
بنظر
بنعم
بنفس
بنقص
بنقل
بنما
بنمو
بنهج
بنوا
بنود
بنوع
بنوك
بنية
بنيت
بنين
بهاء
بهجة
بهجت
بهدف
بهدم
بهذا
بهذه
بهما
بهية
بهيج
بواب
بوتر
بوتق
بوتو
بوجه
بوحد
بودا
بودي
بوذي
بورت
بورد
بورز
بورش
بورق
بورو
بوري
بوزن
بوست
بوسط
بوسع
بوسك
بوسي
بوصة
بوصف
بوضع
بوعي
بوفد
بوقت
بوقف
بوكا
بوكر
بوكس
بوكو
بولت
بولز
بولس
بولو
بولي
بونت
بوند
بوني
بوير
بويز
بيئة
بيئي
بيار
بياض
بيان
بيبي
بيتا
بيتر
بيتش
بيتك
بيته
بيتي
بيجو
بيجي
بيده
بيرت
بيرد
بيرس
بيرغ
بيرك
بيرل
بيرم
بيرن
بيرو
بيري
بيزو
بيسر
بيضة
بيعت
بيعه
بيكر
بيكو
بيلا
بيلد
بيلي
بينه
بيوت
بيور
بيوم
بيير
تآكل
تآمر
تأتى
تأتي
تأثر
تأجل
تأخذ
تأخر
تأزم
تأسس
تأكد
تأكل
تألق
تألو
تأمر
تأمل
تأهب
تأهل
تؤثر
تؤجل
تؤخذ
تؤخر
تؤدي
تؤذي
تؤرخ
تؤرق
تؤسس
تؤشر
تؤكد
تؤلف
تؤمن
تؤهل
تؤول
تؤوي
تؤيد
تائه
تابت
تابع
تاتا
تاتي
تاجر
تارة
تارك
تارو
تاما
تامة
تامر
تانى
تاني
تاور
تاون
تايس
تايم
تباع
تبثه
تبحث
تبحر
تبخل
تبدأ
تبدد
تبدل
تبدو
تبدي
تبذل
تبرئ
تبرر
تبرز
تبرع
تبرم
تبشر
تبصر
تبعا
تبعث
تبعد
تبعه
تبقى
تبقي
تبكي
تبلغ
تبنت
تبنى
تبني
تبوك
تبيح
تبيع
تبين
تتأه
تتاح
تتبد
تتبع
تتبن
تتجل
تتجه
تتحد
تتحل
تتخذ
تتخط
تتخل
تتدف
تترك
تتسع
تتسم
تتصد
تتصف
تتصل
تتضح
تتعب
تتعد
تتعم
تتغذ
تتفر
تتفق
تتقن
تتلف
تتلق
تتلو
تتمة
تتهم
تتوج
تتوخ
تتوف
تتيح
تثار
تثبت
تثري
تثقل
تثمر
تثني
تثور
تثير
تجار
تجاه
تجبر
تجدد
تجدر
تجده
تجذب
تجرأ
تجرؤ
تجرب
تجري
تجسد
تجسس
تجعل
تجلب
تجلت
تجلس
تجلي
تجمد
تجمع
تجنب
تجند
تجني
تجهز
تجهل
تجوب
تجوز
تجول
تجيب
تجيد
تجيز
تحاك
تحال
تحبط
تحتل
تحجب
تحدث
تحدد
تحدي
تحذر
تحذو
تحرر
تحرز
تحرس
تحرش
تحرص
تحرض
تحرق
تحرك
تحرم
تحري
تحزن
تحسب
تحسم
تحسن
تحشد
تحصد
تحصر
تحصل
تحصن
تحصى
تحضر
تحطم
تحظر
تحفة
تحفر
تحفز
تحفظ
تحفل
تحقق
تحكم
تحكى
تحكي
تحلق
تحلل
تحلم
تحمد
تحمل
تحمي
تحوز
تحوط
تحول
تحوم
تحوي
تحيا
تحية
تحيط
تحيل
تحيي
تخاف
تخبئ
تخبر
تخبط
تختص
تخجل
تخدع
تخدم
تخرج
تخرق
تخزن
تخسر
تخشى
تخصص
تخضع
تخطئ
تخطت
تخطر
تخطط
تخطف
تخطو
تخطى
تخطي
تخفض
تخفف
تخفي
تخلت
تخلص
تخلط
تخلف
تخلق
تخلل
تخلو
تخلي
تخنق
تخوض
تخوف
تخول
تخوم
تخيف
تخيل
تدار
تدخر
تدخل
تدرب
تدرج
تدرس
تدرك
تدري
تدشن
تدعم
تدعو
تدعى
تدعي
تدفع
تدفق
تدفن
تدمر
تدني
تدور
تدوم
تدير
تدين
تذكر
تذمر
تذهب
تذوب
تذوق
ترأس
ترؤس
تراب
تراث
تراخ
تراع
تراف
تراك
تران
تراه
تراي
تربة
تربت
تربح
تربص
تربط
تربي
ترتب
ترتد
ترتق
ترتك
ترجح
ترجع
ترجل
ترجم
ترحب
ترحل
ترحم
تردد
تردي
ترزح
ترسخ
ترسل
ترسم
ترسو
ترسي
ترشح
ترصد
ترضخ
ترضي
ترعة
ترعى
ترغب
ترفض
ترفع
ترقب
ترقد
ترقص
تركت
تركز
تركه
تركي
ترمب
ترمز
ترمي
ترهب
ترهق
تروج
ترون
تروى
تروي
تريب
تريح
تريد
تريز
ترين
تزال
تزخر
تزرع
تزعج
تزعم
تزوج
تزود
تزور
تزول
تزيد
تزيل
تزين
تسأل
تسبب
تسبح
تسبق
تستر
تسجل
تسحب
تسخر
تسدد
تسرب
تسرع
تسرق
تسري
تسعة
تسعد
تسعى
تسعي
تسفر
تسقط
تسكت
تسكن
تسلح
تسلط
تسلق
تسلك
تسلل
تسلم
تسمح
تسمع
تسمم
تسمى
تسمي
تسند
تسهر
تسهل
تسهم
تسود
تسوق
تسول
تسيب
تسير
تسيل
تشاء
تشاب
تشاد
تشاك
تشام
تشان
تشاو
تشبع
تشبه
تشتت
تشتم
تشته
تشجع
تشدد
تشرب
تشرح
تشرع
تشرف
تشرق
تشعر
تشعل
تشغل
تشفع
تشكر
تشكك
تشكل
تشكو
تشمل
تشهد
تشوب
تشوف
تشوه
تشيد
تشير
تشيع
تشيك
تشيل
تشين
تصاب
تصبح
تصحح
تصدر
تصدع
تصدق
تصرح
تصرخ
تصرف
تصعب
تصعد
تصفح
تصلب
تصلح
تصنع
تصنف
تصوت
تصور
تصيب
تصير
تضاف
تضبط
تضحك
تضحي
تضخم
تضرب
تضرر
تضطر
تضعف
تضغط
تضفي
تضمن
تضيء
تضيع
تضيف
تضيق
تطاق
تطال
تطاو
تطبع
تطبق
تطرأ
تطرح
تطرد
تطرف
تطرق
تطعن
تطفو
تطلب
تطلع
تطلق
تطمح
تطور
تطوع
تطول
تطوي
تطيح
تطير
تظلم
تظهر
تعاد
تعال
تعان
تعبت
تعبث
تعبر
تعتد
تعتز
تعثر
تعجب
تعجز
تعدد
تعذر
تعرب
تعرض
تعرف
تعزز
تعزف
تعسف
تعشق
تعطل
تعطى
تعطي
تعقب
تعقد
تعكر
تعكس
تعكف
تعلق
تعلم
تعلن
تعلو
تعلي
تعمد
تعمق
تعمل
تعنت
تعني
تعهد
تعود
تعوض
تعوق
تعول
تعيد
تعيش
تعيق
تعين
تغدو
تغذي
تغرق
تغري
تغزو
تغسل
تغضب
تغطي
تغفل
تغلب
تغلق
تغمد
تغمر
تغنى
تغني
تغيب
تغير
تفاد
تفتح
تفتك
تفجر
تفخر
تفرح
تفرد
تفرز
تفرض
تفرط
تفرغ
تفرق
تفسد
تفسر
تفشل
تفشي
تفصح
تفصل
تفضح
تفضل
تفضي
تفعل
تفقد
تفكر
تفكك
تفلح
تفهم
تفوت
تفوح
تفوز
تفوق
تفيد
تفيض
تقاس
تقال
تقام
تقبض
تقبع
تقبل
تقتل
تقدر
تقدم
تقرأ
تقرب
تقرر
تقسم
تقصد
تقصر
تقصف
تقصي
تقضي
تقطع
تقطن
تقفز
تقلب
تقلد
تقلص
تقلق
تقلل
تقنع
تقني
تقهر
تقود
تقوض
تقول
تقوم
تقوى
تقوي
تقيد
تقيس
تقيم
تكاد
تكبد
تكبر
تكتب
تكتف
تكتل
تكثر
تكثف
تكدس
تكذب
تكرر
تكرس
تكرم
تكره
تكسب
تكسر
تكشف
تكفل
تكفى
تكفي
تكلف
تكلل
تكلم
تكمل
تكمن
تكون
تلال
تلاه
تلبس
تلبي
تلتق
تلجأ
تلحظ
تلحق
تلزم
تلعب
تلغي
تلفت
تلفظ
تلقت
تلقو
تلقي
تلمح
تلمس
تلوث
تلوح
تليق
تماس
تمام
تمتد
تمتص
تمتع
تمثل
تمخض
تمدد
تمرد
تمزج
تمزق
تمسك
تمشي
تمضي
تمكن
تملأ
تملك
تمنت
تمنح
تمنع
تمهد
تموت
تموز
تمول
تميز
تميل
تميم
تنال
تنام
تنبأ
تنبئ
تنبض
تنبع
تنبه
تنتج
تنتق
تنتم
تنته
تنجب
تنجح
تنجز
تنحي
تندم
تنذر
تنزع
تنزف
تنزل
تنسب
تنسق
تنسى
تنشأ
تنشئ
تنشد
تنشر
تنشط
تنصب
تنصح
تنضج
تنضم
تنطق
تنظر
تنظم
تنعم
تنفذ
تنفس
تنفع
تنفق
تنفى
تنفي
تنقذ
تنقص
تنقض
تنقل
تنكر
تنمو
تنمي
تنهض
تنهى
تنهي
تنوع
تنوي
تهبط
تهتز
تهتف
تهتم
تهدأ
تهدد
تهدر
تهدف
تهدم
تهدي
تهرب
تهزم
تهمة
تهنئ
تهور
تهوي
تهيئ
توأم
توبك
توتر
توتي
توثق
توجب
توجت
توجد
توجه
توجو
توحد
توحي
توخي
تودع
تودي
تورد
تورس
تورط
تورك
توري
توزع
توسع
توسك
توشك
توصف
توصل
توصي
توضح
توضع
توظف
توعد
توغل
توغو
توفر
توفق
توفي
توقع
توقف
توكل
تولت
تولد
تولو
تولى
تولي
توما
تومس
تومي
تونس
تونغ
توني
توهم
تيار
تيتو
تيرن
تيري
تيزي
تيسر
تيلر
تيلي
ثائر
ثابت
ثالث
ثامر
ثامن
ثانى
ثاني
ثبات
ثبتت
ثبوت
ثراء
ثراه
ثروة
ثروت
ثريا
ثغرة
ثقته
ثقوب
ثقيل
ثكنة
ثلاث
ثلثي
ثمار
ثمان
ثمنا
ثمنه
ثواب
ثوار
ثوان
ثورة
ثوري
ثياب
جئنا
جاءت
جائر
جائز
جائع
جابت
جابر
جابو
جادا
جادة
جارف
جاره
جاري
جاست
جاسر
جاسم
جاعل
جافة
جالس
جالو
جالي
جامب
جامد
جامع
جانب
جاهز
جاهل
جاوز
جبار
جبال
جبان
جبلة
جبهة
جبور
جبير
جبيل
جبين
جثته
جثتي
جحيم
جدار
جدته
جدتي
جددت
جدلا
جدول
جدوى
جديا
جدية
جديد
جدير
جذاب
جذبت
جذري
جذور
جرأة
جراء
جراج
جراح
جراد
جرار
جرام
جربة
جربت
جرجا
جرجس
جرجي
جرحى
جرعة
جرفت
جروب
جروح
جرود
جروس
جريء
جريج
جريح
جريد
جرير
جريس
جرين
جزءا
جزئه
جزئى
جزئي
جزاء
جزار
جزيل
جزين
جسار
جسام
جسدت
جسده
جسدي
جسرا
جسمه
جسور
جسيم
جعجع
جعفر
جعلت
جعلن
جعله
جفاف
جلاد
جلال
جلبت
جلسة
جلست
جلطة
جلوب
جلود
جلوس
جلول
جليا
جليب
جلية
جليد
جليل
جماح
جماد
جمال
جمدت
جمعة
جمعت
جمعه
جملة
جمود
جموع
جمير
جميع
جميل
جنات
جناح
جنان
جنبا
جندى
جندي
جنسي
جنوب
جنوح
جنود
جنون
جنية
جنيد
جنيف
جنين
جنيه
جهات
جهاد
جهاز
جهته
جهتي
جهدا
جهده
جهزت
جهنم
جهود
جهوي
جواب
جواد
جوار
جواز
جوال
جوان
جوبا
جوبر
جوبز
جوبي
جوجل
جودة
جودت
جودي
جورج
جوزف
جوعا
جوقة
جولة
جولد
جولي
جونج
جونز
جونغ
جوني
جوهر
جويا
جوية
جويس
جويل
جيان
جيبه
جيتس
جيتك
جيجا
جيدا
جيدة
جيري
جيسي
جيشه
جيلا
جيمس
جيمي
جيني
جيوب
جيوش
حائر
حائز
حائط
حائل
حاتم
حاجا
حاجة
حاجز
حاجي
حادا
حادة
حادث
حارب
حارة
حارث
حارس
حازت
حازم
حاسب
حاسة
حاسم
حاشد
حاصر
حاصل
حاضر
حافز
حافظ
حافل
حافي
حاقد
حاكم
حالة
حالت
حاله
حامد
حامض
حامل
حامي
حاول
حاوي
حايك
حبات
حبال
حبرا
حبسا
حبسه
حبنا
حبها
حبهم
حبوب
حبوش
حبيب
حبيس
حبيش
حتفه
حتما
حثيث
حجاب
حجاج
حجار
حجرة
حجزت
حجمه
حجيج
حداد
حدثت
حددت
حدده
حدوث
حدود
حديث
حديد
حذاء
حذرا
حذرت
حراس
حراك
حرام
حربا
حربي
حرجا
حرجة
حررت
حرصا
حرصت
حرصن
حرصه
حرفي
حركة
حركت
حرمة
حرمت
حروب
حروف
حروق
حرية
حريت
حريص
حريق
حريك
حريم
حزام
حزبه
حزنا
حزنه
حزين
حساب
حساس
حسام
حسان
حسبم
حسرة
حسمت
حسنة
حسنى
حسني
حسون
حسيب
حسين
حشاد
حشمت
حشود
حشيش
حصاد
حصار
حصان
حصته
حصدت
حصرا
حصلت
حصول
حضرة
حضرت
حضره
حضور
حطام
حطمت
حطيط
حطين
حظوظ
حظيت
حفار
حفرة
حفظه
حفلا
حفلة
حفنة
حفيد
حفيظ
حقبة
حققت
حققه
حقنا
حقها
حقهم
حقوق
حقول
حكام
حكما
حكمة
حكمت
حكمه
حكيم
حلاق
حلال
حلقة
حلقت
حلما
حلمه
حلمى
حلمي
حلها
حلوة
حلول
حلوى
حليب
حليف
حليم
حماة
حماد
حمار
حماس
حمام
حماه
حمدى
حمدي
حمزة
حملة
حملت
حمله
حملو
حمود
حمية
حميد
حمير
حميم
حناش
حنان
حنبل
حنفى
حنفي
حنون
حنيف
حنين
حواء
حوار
حواس
حواف
حوثي
حوري
حوكم
حوله
حياء
حياة
حياد
حيال
حيدر
حيرة
حيرت
حيزا
حيفا
حيلة
حينه
حيوي
خائب
خائف
خائن
خاتم
خادم
خارج
خارق
خاسر
خاصا
خاصة
خاضت
خاضع
خاضو
خاطئ
خاطب
خاطر
خاطف
خافت
خالد
خالص
خالف
خالي
خامس
خانق
خايف
خبرا
خبرة
خبيث
خبير
ختام
ختان
خجول
خداع
خدام
خدعة
خدمة
خدمت
خراب
خراج
خراز
خراف
خربة
خرجت
خردة
خرسا
خرقا
خروج
خروف
خريب
خريج
خريس
خريف
خزام
خزان
خسرت
خشان
خشبة
خشبي
خصال
خصبة
خصصت
خصما
خصمه
خصوص
خصوم
خضار
خضعت
خضنا
خضوع
خضير
خطاب
خطته
خطرا
خطرة
خططت
خطفت
خطفو
خطوة
خطوط
خطيب
خطية
خطير
خفاج
خفضت
خفية
خفيف
خلاص
خلاف
خلاق
خلال
خلدة
خلسة
خلصت
خلفا
خلفت
خلفه
خلقت
خلقه
خللا
خلود
خلية
خليج
خليط
خليف
خليك
خليل
خمسة
خميس
خنجر
خندق
خواج
خوان
خوجة
خوري
خوفا
خولي
خيار
خياط
خيال
خيام
خيبة
خيبر
خيرا
خيرة
خيرت
خيرى
خيري
خيمة
خيمت
خيوط
خيول
دأبت
دؤوب
دائر
دائم
دائن
دابر
داتا
داخل
دارت
دارس
داره
داعم
داعي
داغر
دافئ
دافع
دافي
داكس
داكن
دالا
دالي
دامت
دانت
داني
داهم
داود
داون
دايف
دايل
دايم
دبلن
دبوس
دجاج
دجلة
دخان
دخلت
دخله
دخول
دخيل
دراج
دراس
دربي
درجة
درجت
درزي
درسا
درست
درعا
درنة
درهم
دروب
دروز
دروس
دروع
دريد
دريك
دريم
دسمة
دسوق
دشنت
دعاء
دعاة
دعبس
دعما
دعمت
دعمه
دعنا
دعوا
دعوة
دعوت
دعوى
دعوي
دعيت
دفاع
دفتر
دفعة
دفعت
دفعه
دفين
دقات
دقيق
دكاش
دكان
دلال
دلتا
دلول
دليل
دماء
دمار
دماغ
دمرت
دمشق
دمعة
دمنا
دموع
دموي
دمية
دندش
دنفر
دنقل
دنيا
دنيس
دهان
دهشة
دهون
دواء
دوار
دوال
دوام
دوبل
دودي
دورا
دورة
دوره
دورى
دوري
دوست
دولا
دولة
دولى
دولي
دوما
دومة
دياب
ديار
دياز
ديان
ديدن
ديزل
ديسك
ديلي
ديما
ديمو
ديمي
دينا
دينه
دينى
ديني
ديوب
ديون
ذائع
ذاته
ذاتي
ذاهب
ذبيح
ذخرا
ذرات
ذراع
ذروة
ذرية
ذريع
ذكاء
ذكرت
ذكره
ذكرى
ذكور
ذكية
ذمته
ذنوب
ذهاب
ذهبت
ذهبن
ذهنه
ذهني
ذهول
ذوات
ذياب
ذيول
رأسه
رأسي
رأفت
رأوا
رأيا
رأيت
رأيك
رأيه
رأيي
رؤاه
رؤوس
رؤوف
رؤيا
رؤية
رئوي
رئيس
رائد
رائع
رابح
رابط
رابع
راتب
راجح
راجع
راجل
راجي
راحة
راحت
راحو
راخو
رادع
راسخ
راسل
راشد
راضى
راضي
راعي
راغب
رافض
رافع
رافق
رافي
راقص
راكب
رالف
رالي
رامز
رامى
رامي
راند
راهب
راهن
راود
راية
رايت
رايح
رايس
راين
رباب
رباح
رباط
ربحا
ربطت
ربما
ربنا
ربوع
ربيع
رتبة
رتيب
رثاء
رجاء
رجال
رجحت
رجعة
رجعت
رجعي
رجلا
رجوع
رحاب
رحال
رحبت
رحلة
رحلت
رحمة
رحمه
رحيل
رحيم
رخام
رخصة
رخيص
رداء
رددو
ردها
ردود
رديف
رزان
رسام
رستم
رسخت
رسمت
رسمى
رسمي
رسوخ
رسول
رسوم
رشاد
رشاش
رشحت
رشدى
رشدي
رشوة
رشيد
رشيق
رصاص
رصدت
رصيد
رصيف
رضاه
رضيع
رعاه
رغبة
رغبت
رغيف
رفات
رفاق
رفاه
رفضت
رفضه
رفعت
رفعه
رفوف
رفيع
رفيق
رقاب
رقبة
رقما
رقيب
رقيق
ركاب
ركام
ركبت
ركزت
ركوب
ركود
ركيز
رماد
رمال
رمزا
رمزى
رمزي
رموز
رميا
رنين
رهان
رهبة
رهيب
رهيف
رهين
رواج
رواد
رواق
روان
رواه
روبل
روبن
روبي
روجر
روحه
روحي
رودي
روزا
روزن
روسو
روسي
روضة
روعة
روعي
روفر
روكز
رولا
رولز
روما
رومي
رونق
روني
رويس
رياح
رياض
رياق
ريال
ريان
ريتا
ريجي
ريشة
ريفر
ريفي
ريكس
ريما
رينا
رينو
زئيف
زائد
زائر
زائف
زائل
زاخر
زادت
زاده
زارت
زاعم
زالت
زامل
زاهد
زاهر
زاهى
زاهي
زايد
زبون
زبيب
زجاج
زحام
زحلة
زحمة
زخرف
زخما
زخور
زرعت
زريق
زعبل
زعبي
زعزع
زعمت
زعيم
زغرب
زغيب
زفاف
زفتى
زقاق
زلما
زمام
زمان
زمزم
زمني
زميل
زنجا
زهرا
زهرة
زهري
زهور
زهيد
زهير
زواج
زوار
زوال
زوجة
زوجك
زوجي
زودت
زورا
زورق
زوما
زويد
زويل
زياد
زيار
زيرو
زيزو
زيكا
زينب
زينة
زيوت
سألت
سأله
سؤال
ساءت
سائح
سائد
سائر
سائغ
سائق
سائل
سابا
سابع
سابق
سابك
ساتر
ساجد
ساحة
ساحر
ساحق
ساحل
ساخر
ساخن
سادة
سادت
سادس
ساذج
سارا
سارة
سارت
سارع
سارق
ساري
ساطع
ساعة
ساعد
ساعي
سافر
ساقه
ساكت
ساكس
ساكن
سالب
سالت
سالف
سالك
سالم
سالي
سامة
سامح
سامر
سامى
سامي
سانا
سانت
ساند
ساهر
ساهم
ساوث
سايب
سايت
سايك
سبات
سباح
سباق
سببا
سببت
سببه
سبعة
سبقت
سبقه
سبور
سبيت
سبير
سبيس
سبيل
ستؤو
ستاد
ستار
ستاف
ستام
ستتم
ستجد
ستحل
سترد
سترو
ستصل
ستضع
ستضم
ستظل
ستقف
ستوك
ستون
ستيت
ستيف
ستيل
ستين
سجاد
سجال
سجلت
سجله
سجنا
سجنه
سجون
سجين
سحاب
سحبت
سحيق
سخرت
سخيف
سداد
سدود
سدير
سراب
سراج
سراح
سراق
سراي
سرعا
سرعة
سرقة
سرقت
سرقو
سرور
سريا
سرية
سرير
سريع
سسكا
سطوح
سطور
سطوع
سطيف
سعاد
سعره
سعوا
سعود
سعيا
سعيد
سعيه
سفاح
سفار
سفره
سفلت
سفير
سقطت
سقوط
سكار
سكاف
سكاك
سكان
سكاي
سكنت
سكني
سكوب
سكوت
سكود
سكور
سكول
سكون
سكيب
سكين
سلاح
سلاف
سلال
سلام
سلبا
سلبى
سلبي
سلسة
سلطة
سلطت
سلعة
سلفا
سلفه
سلفي
سلمت
سلمه
سلمى
سلمي
سلهب
سلوك
سلوم
سلوى
سليل
سليم
سماء
سمات
سماح
سمار
سماع
سماه
سمته
سمحت
سمعة
سمعت
سمكة
سموه
سمية
سميت
سميث
سميح
سمير
سميع
سناء
سنتا
سنتر
سنتي
سنجد
سنحت
سندا
سنرى
سنصل
سنعم
سنود
سنوى
سنوي
سنية
سنين
سهام
سهرة
سهلا
سهلة
سهلت
سهما
سهوا
سهير
سهيل
سوءا
سواء
سوات
سواد
سوار
سوان
سواه
سوبر
سوخو
سورة
سورى
سوري
سوزا
سوسة
سوسن
سوشو
سوكر
سولي
سومر
سومي
سونج
سونغ
سوني
سويا
سوية
سويت
سويد
سويس
سويف
سيؤد
سيؤو
سيئا
سيئة
سيئو
سياج
سياح
سيار
سياف
سياق
سيتم
سيتى
سيتي
سيجد
سيجر
سيحظ
سيحل
سيدة
سيدى
سيدي
سيرا
سيرة
سيرج
سيرك
سيره
سيرو
سيري
سيست
سيسع
سيسك
سيصل
سيضر
سيضع
سيضم
سيطر
سيظل
سيعد
سيقا
سيقع
سيقف
سيلا
سيلي
سيما
سيمر
سينا
سينج
سينغ
سيوف
سيول
شأنه
شؤون
شئنا
شئون
شاءت
شاؤو
شائع
شائك
شابا
شابة
شابه
شاحب
شاحن
شادي
شارب
شارة
شارع
شارف
شارك
شارل
شاسع
شاشة
شاطئ
شاعر
شاغر
شافي
شاقة
شاكر
شاكي
شامخ
شامل
شاهد
شاهر
شايع
شايف
شباب
شباط
شباك
شبان
شبرا
شبعا
شبكة
شبهة
شبوة
شبيب
شبين
شبيه
شتاء
شتات
شتيف
شجار
شجاع
شجرة
شجعت
شجون
شحنة
شحيم
شخصا
شخصي
شخوص
شداد
شدته
شددت
شديد
شراء
شراب
شرار
شراك
شربل
شرحا
شرحت
شرسة
شرطا
شرطة
شرطي
شرعا
شرعت
شرعى
شرعي
شرفة
شرقا
شرقي
شركة
شركت
شرور
شروط
شروق
شريد
شرير
شريط
شريف
شريك
شطري
شعار
شعاع
شعبا
شعبة
شعبه
شعبى
شعبي
شعرا
شعرت
شعره
شعري
شعلة
شعوب
شعور
شعيب
شعير
شعيل
شغال
شغلت
شغور
شغوف
شفاء
شفاف
شفاه
شفرة
شفير
شفيع
شفيق
شقته
شقرا
شقير
شقيق
شكرا
شكرت
شكره
شكرى
شكري
شكلا
شكلت
شكله
شكوك
شكوى
شكيب
شلاش
شلبى
شلبي
شليط
شماس
شماع
شمال
شمام
شمعة
شملت
شموخ
شموع
شمول
شميت
شنته
شنقا
شنها
شنوا
شنيع
شهاب
شهدت
شهده
شهرا
شهرة
شهري
شهوة
شهود
شهور
شهيب
شهية
شهيد
شهير
شوال
شورى
شوشة
شوقى
شوقي
شوكت
شوهت
شوهد
شوية
شيئا
شيحا
شيحة
شيخة
شيدت
شيرت
شيري
شيعة
شيعت
شيعي
شيفر
شيكا
شيكل
شيلي
شيوخ
شيوع
صائب
صائد
صائم
صابر
صاحب
صاخب
صادر
صادف
صادق
صادم
صارت
صارخ
صارم
صاعد
صاعق
صافى
صافي
صالة
صالح
صامت
صامد
صانع
صايغ
صباح
صباغ
صبحى
صبحي
صبرا
صبرى
صبري
صبور
صبيا
صبيح
صحار
صحاف
صحتك
صحته
صحفى
صحفي
صحيا
صحية
صحيح
صخرة
صخور
صداع
صدام
صداه
صدرت
صدره
صدفة
صدقة
صدقت
صدقى
صدقي
صدمة
صدمت
صدور
صديق
صراخ
صراع
صراف
صرحت
صرخة
صرخت
صرفت
صروح
صريح
صعبا
صعبة
صعدة
صعدت
صعود
صعيد
صغار
صغره
صغير
صفاء
صفات
صفار
صفته
صفحة
صفعة
صفقة
صفوت
صفوف
صفية
صفيح
صفير
صقور
صكوك
صلاة
صلات
صلاح
صلال
صلبة
صلته
صلوخ
صليب
صمام
صممت
صمود
صميم
صناع
صندا
صنعت
صنعه
صنعو
صنفت
صنوف
صنيع
صواب
صوان
صوتا
صوتك
صوته
صوتي
صورا
صورة
صورت
صوره
صوفي
صياح
صياد
صيام
صيته
صيدا
صيغة
صيفا
صيفي
صيني
ضئيل
ضائع
ضابط
ضاحي
ضارة
ضاري
ضاعت
ضاغط
ضاقت
ضالع
ضامن
ضاهر
ضباب
ضباط
ضبطت
ضبطه
ضجيج
ضحكت
ضحية
ضخما
ضخمة
ضدنا
ضدها
ضدهم
ضربا
ضربة
ضربت
ضررا
ضروب
ضريح
ضعاف
ضعفا
ضعيف
ضغطا
ضغوط
ضفاف
ضفتي
ضلال
ضلوع
ضمان
ضمور
ضمير
ضوئي
ضومط
ضياء
ضياع
ضيفا
ضيفة
ضيفه
ضيقة
ضيوف
طائر
طائش
طائل
طابا
طابع
طابق
طارئ
طارق
طازج
طاعة
طافت
طاقة
طاقم
طالب
طالت
طالع
طالم
طامي
طاهر
طايع
طباخ
طباع
طبرق
طبعا
طبعة
طبعت
طبقا
طبقة
طبقت
طبول
طبيا
طبيب
طبية
طحين
طراب
طراد
طراز
طرحت
طرحه
طرده
طرفا
طرفي
طريف
طريق
طعام
طعمة
طعنا
طعنة
طعون
طفرة
طفلا
طفلة
طفلك
طفيف
طفيل
طقوس
طلاء
طلاب
طلاس
طلاق
طلال
طلبا
طلبة
طلبت
طلبه
طلحة
طلعت
طلقة
طلوع
طليس
طليق
طمأن
طمعا
طموح
طنجة
طنطا
طنوس
طهطا
طواف
طوال
طورت
طوعا
طوعي
طوقا
طوله
طوني
طويل
طيار
طيبا
طيبة
طيلة
طيور
ظافر
ظالم
ظاهر
ظروف
ظريف
ظلال
ظلام
ظلما
ظلوا
ظننت
ظهرا
ظهرت
ظهره
ظهور
ظهير
عائد
عائق
عائل
عابئ
عابد
عابر
عاتق
عاجز
عاجل
عادة
عادت
عادل
عادى
عادي
عارض
عارف
عارم
عازر
عازف
عازل
عازم
عاشت
عاشر
عاشق
عاصر
عاصف
عاصم
عاصي
عاطف
عاطل
عاقد
عاقل
عاكف
عالج
عالم
عالي
عاما
عامة
عامر
عامل
عامي
عانت
عانو
عاهل
عاود
عاوز
عايد
عايز
عايش
عاين
عباد
عباس
عبثا
عبده
عبرت
عبلة
عبوة
عبود
عبور
عبيد
عبير
عتبة
عتيق
عثرت
عجاج
عجرم
عجزا
عجزت
عجلة
عجلت
عجوز
عجيب
عداء
عداد
عددا
عدرا
عدلت
عدلى
عدلي
عدمه
عدنا
عدوا
عدوى
عديد
عديم
عذاب
عذرا
عراب
عراق
عراك
عربة
عربى
عربي
عرضا
عرضت
عرضه
عرعر
عرفة
عرفت
عرفه
عرقي
عروس
عروض
عروق
عريس
عريش
عريض
عريف
عريق
عرين
عزاء
عزام
عزبة
عززت
عزلة
عزله
عزمه
عزمى
عزمي
عزوز
عزوف
عزيز
عساف
عسكر
عسير
عشاء
عشاق
عشان
عشرة
عشقه
عشنا
عشير
عشيق
عصام
عصبي
عصرا
عصره
عصري
عصمت
عصور
عصير
عضال
عضلي
عضوا
عضوي
عطاء
عطري
عطلة
عطلت
عطوي
عطية
عطيف
عظام
عظمة
عظمى
عظمي
عظيم
عفاف
عفان
عفوا
عفوي
عفيف
عقاب
عقار
عقال
عقبة
عقدا
عقدة
عقدت
عقده
عقله
عقلي
عقود
عقول
عقيد
عقيل
عقيم
عكار
عكاش
عكاظ
عكست
علاء
علاج
علام
علبة
علقت
علما
علمت
علمه
علمي
علنا
علنى
علني
علوش
علوم
علوى
علوي
عليك
عليه
عماد
عمار
عمال
عمان
عمدا
عمدت
عمره
عمرو
عمري
عمقا
عملا
عملة
عملت
عملك
عمله
عملي
عممت
عمود
عموم
عميد
عمير
عميق
عميل
عناء
عناد
عنان
عنبر
عنتر
عنجر
عندك
عنده
عنصر
عنفا
عنقه
عنها
عنهم
عنوة
عنيف
عهدة
عهده
عهود
عواد
عواض
عوام
عودة
عوده
عوفر
عوقب
عولج
عوني
عويس
عياد
عيار
عياش
عيال
عيان
عيبا
عيتا
عيدو
عيسى
عيسي
عيطة
عينة
عينت
عينه
عيني
عيوب
عيون
غائب
غائر
غائم
غابة
غابت
غابي
غادة
غادر
غارب
غارة
غارق
غاري
غازى
غازي
غاضب
غاغا
غافل
غالب
غالى
غالي
غامب
غامض
غانا
غانم
غاية
غبار
غباش
غبري
غداء
غدار
غدير
غذاء
غراب
غرار
غراس
غرام
غران
غراي
غربا
غربي
غرفة
غرقا
غرقت
غروب
غرور
غروس
غريب
غريز
غريس
غريغ
غريم
غرين
غزال
غزوة
غزير
غسان
غسيل
غضبا
غضبه
غضون
غطاء
غطاس
غفلة
غفير
غلاء
غلاب
غلاف
غلام
غلطة
غلوب
غليظ
غمار
غمرة
غمرت
غموض
غناء
غنام
غنية
غنيم
غواص
غوغل
غولد
غولن
غياب
غيار
غيتس
غيره
غيمة
غيور
غيوم
فأحب
فأخذ
فأعط
فأكد
فألق
فأمر
فأنا
فأنت
فأهل
فأول
فأين
فؤاد
فإذا
فإما
فإنن
فإنه
فئات
فئتي
فائز
فائض
فائق
فابر
فاتح
فاتر
فاتن
فاجأ
فاجن
فاحت
فاخت
فاخر
فادح
فادي
فاذا
فارت
فارس
فارغ
فارق
فازت
فاست
فاسد
فاسو
فاشل
فاصل
فاضح
فاضل
فاعل
فاقت
فاقد
فاكر
فاكس
فالأ
فالإ
فالا
فالت
فالج
فالح
فالس
فالق
فالم
فانن
فانه
فاهم
فايد
فاير
فايز
فايس
فايق
فاين
فبات
فبال
فبدأ
فبدل
فبعد
فبعض
فبقي
فبلغ
فبين
فتاة
فتات
فتال
فتجد
فتحت
فتحى
فتحي
فترة
فترك
فتفت
فتكا
فتلك
فتنة
فتوح
فتوش
فتوى
فتيح
فتيل
فجأة
فجاء
فجرا
فجرت
فجعل
فجوة
فحدث
فحسب
فحصل
فحقق
فحمل
فحوص
فحول
فحوى
فحين
فخرج
فخرى
فخري
فخسر
فخمة
فخور
فداء
فدان
فدخل
فدوى
فدية
فذكر
فذلك
فذهب
فرأى
فراج
فراح
فرار
فراس
فراش
فراغ
فراق
فران
فراي
فرحا
فرحة
فرحت
فردا
فردي
فرصا
فرصة
فرضت
فرضه
فرعا
فرعي
فرفض
فرفع
فرقا
فرقة
فرنك
فروا
فروخ
فروع
فروق
فريج
فريد
فريق
فزاع
فسأل
فساد
فسجل
فسقط
فسيح
فشكر
فشلت
فشله
فصار
فصلا
فصله
فصول
فصيل
فضاء
فضلا
فضلت
فضول
فضية
فطلب
فظيع
فعاد
فعال
فعدد
فعرض
فعلا
فعلت
فعله
فعلى
فعلي
فعمل
فعند
ففاز
فقال
فقام
فقبل
فقتل
فقدت
فقرا
فقرة
فقرر
فقلت
فقيد
فقير
فقيه
فكأن
فكان
فكتب
فكرا
فكرة
فكرت
فكره
فكرى
فكري
فكما
فكنت
فكيف
فلأن
فلاح
فلاش
فلان
فلجأ
فلسا
فلعل
فلقد
فلكل
فلكي
فلما
فلور
فلوس
فلول
فليس
فمثل
فمصر
فمنذ
فمهم
فناء
فنان
فنجد
فنحن
فندق
فنظر
فنقل
فنون
فنيا
فنية
فنيش
فهاد
فهذا
فهما
فهمت
فهمه
فهمى
فهمي
فهنا
فهيد
فهيم
فوات
فواز
فوجئ
فوجد
فوجي
فودة
فورا
فورت
فورد
فوري
فوزا
فوزه
فوزى
فوزي
فوصف
فوصل
فوضع
فوضى
فوفق
فوكس
فوكو
فولت
فولف
فياض
فيجب
فيدر
فيزا
فيشر
فيصل
فيغو
فيفا
فيلم
فيما
فيها
قائد
قائل
قائم
قابع
قابل
قاتل
قادة
قادت
قادر
قادم
قاده
قاذف
قارئ
قارب
قارة
قارع
قارن
قاري
قاسم
قاصد
قاصر
قاضى
قاضي
قاطع
قاطن
قاعة
قاعد
قالت
قاله
قامت
قانا
قاهر
قايد
قبرص
قبره
قبضت
قبطى
قبطي
قبور
قبول
قبيح
قبيل
قتال
قتلة
قتلت
قتله
قتلى
قتيل
قداس
قدام
قدرا
قدرة
قدرت
قدره
قدما
قدمت
قدمه
قدوة
قدوم
قديم
قذاف
قذرة
قرآن
قرأت
قراء
قرار
قراق
قران
قردا
قررت
قرشا
قرضا
قروش
قروض
قرون
قروي
قريب
قرية
قريش
قريع
قرين
قسرا
قسري
قسوة
قسيس
قشور
قصاب
قصار
قصاص
قصته
قصتي
قصدت
قصصا
قصفت
قصور
قصوى
قصير
قضاء
قضاة
قضاه
قضوا
قضية
قضيت
قطار
قطاع
قطاف
قطان
قطبي
قطري
قطعا
قطعة
قطعت
قطعو
قطيع
قطيف
قفزت
قفصة
قلبك
قلبه
قلبى
قلبي
قلته
قلصت
قلعة
قلقا
قلقة
قلقه
قللت
قلما
قلنا
قلوب
قليل
قماش
قميص
قناة
قناص
قناع
قنصل
قهوة
قوات
قوام
قواه
قوبل
قوته
قولا
قوله
قومى
قومي
قويا
قوية
قياد
قياس
قيام
قيصر
قيمة
قيود
كآلي
كأحد
كأنك
كأنه
كأول
كؤوس
كإحد
كئيب
كائن
كابر
كابل
كابي
كاتا
كاتب
كاتس
كاتي
كادت
كادر
كاذب
كارا
كارب
كارت
كارد
كارل
كارم
كارن
كاري
كاست
كاسح
كاسر
كاسي
كاظم
كافة
كافر
كاكا
كالأ
كالا
كالب
كالح
كالم
كالو
كالي
كامب
كامل
كانت
كاهل
كاهن
كايت
كبار
كباق
كبرت
كبرى
كبري
كبطل
كبلد
كبير
كتاب
كتبت
كتبه
كتفه
كتلة
كتلك
كتيب
كتير
كثرة
كثرت
كثفت
كثير
كثيف
كجزء
كحال
كحزب
كحول
كحيل
كخطو
كذاب
كذبة
كذلك
كرات
كراج
كراس
كرام
كراو
كراي
كرته
كرجل
كردي
كررت
كرست
كرسي
كركي
كرمت
كرمز
كروت
كروز
كروس
كرول
كروم
كرون
كروي
كريت
كريس
كريش
كريغ
كريك
كريم
كزوج
كسائ
كساب
كساد
كسبت
كسرت
كسور
كسوف
كشاف
كشخص
كشرط
كشعب
كشفت
كشوف
كضيف
كطرف
كعاد
كعرب
كعضو
كعكة
كعلا
كعمل
كغير
كفاح
كفار
كفيف
كفيل
كقضي
كقوة
كقيم
كلاب
كلاس
كلام
كلتا
كلفة
كلفت
كلفه
كلما
كلمة
كلنا
كلها
كلهم
كلوب
كلود
كلوي
كليا
كليب
كلية
كمال
كمثل
كمية
كميل
كمين
كنتم
كندا
كندي
كنقط
كنوز
كنوع
كنيس
كهدف
كهذا
كهذه
كهيئ
كوان
كوبا
كوبر
كوبي
كوتش
كوثر
كوجه
كوحد
كورب
كورت
كورد
كورس
كورق
كورن
كورو
كوري
كوسا
كوست
كوفي
كوكب
كوكس
كوكو
كولا
كولن
كولي
كومب
كومي
كونا
كونت
كونج
كونغ
كونه
كوني
كويت
كويس
كويك
كوين
كيال
كيان
كيتا
كيرى
كيري
كيلو
كيلي
كيمي
كينج
كينغ
كيني
كييف
لآخر
لأبو
لأبي
لأجل
لأحد
لأخذ
لأدب
لأرض
لأسر
لأقل
لألف
لأمر
لأمن
لأنك
لأنن
لأنه
لأهل
لأهم
لأول
لإحد
لائق
لابد
لابس
لابن
لاجئ
لاجل
لاحت
لاحد
لاحظ
لاحق
لادن
لاذع
لارا
لاري
لازم
لاست
لاسم
لاشك
لاصق
لاعب
لافت
لاقت
لامب
لاند
لانك
لانه
لاول
لايت
لايف
لباب
لبار
لباس
لبثت
لبحث
لبدء
لبذل
لبضع
لبطل
لبعث
لبعض
لبكي
لبلا
لبلد
لبنك
لبنى
لبوش
لبيب
لبيت
لبيع
لبيك
لتبق
لتتم
لتجد
لتحر
لتحل
لتحي
لترك
لتست
لتصل
لتضع
لتضم
لتطل
لتظل
لتقر
لتقف
لتقل
لتلك
لتمت
لتمر
لتوف
لتول
لجأت
لجأو
لجان
لجذب
لجسم
لجعل
لجلب
لجمع
لجنة
لجني
لجهة
لجهد
لجوء
لجيل
لحاج
لحال
لحام
لحجز
لحجم
لحدث
لحرب
لحرس
لحرص
لحرق
لحزب
لحسم
لحسن
لحشد
لحصر
لحظة
لحظر
لحفر
لحفظ
لحفل
لحقت
لحكم
لحلف
لحمل
لحود
لحوم
لحين
لخام
لخبر
لخطر
لخطط
لخطف
لخفض
لخلق
لخمس
لخوض
لخير
لدار
لداع
لدبي
لدرس
لدعم
لدفع
لدفن
لدمج
لدور
لدول
لديك
لدين
لديه
لذات
لذكر
لذلك
لذوي
لذيذ
لرأس
لرأي
لربط
لرجل
لردع
لرسم
لرصد
لرفض
لرفع
لركل
لرمي
لروح
لزرع
لزوج
لزوم
لسان
لسبب
لسجل
لسجن
لسحب
لسعد
لسعر
لسفر
لسمو
لسنا
لسنة
لسهم
لسوق
لسيد
لسير
لشاب
لشبه
لشحن
لشخص
لشرح
لشرف
لشرك
لشعب
لشعر
لشغل
لشكر
لشكل
لشهر
لشيء
لصرف
لصغر
لصقل
لصنع
لصوت
لصور
لصوص
لصيد
لصيف
لضبط
لضرب
لضعف
لضغط
لضيق
لطال
لطرح
لطرد
لطرف
لطرق
لطفل
لطفى
لطفي
لطلب
لطيف
لعاب
لعام
لعبة
لعبت
لعبد
لعبه
لعجز
لعدد
لعدم
لعرض
لعزل
لعشر
لعصر
لعضو
لعقد
لعقل
لعلم
لعله
لعلي
لعمر
لعمل
لعنة
لعهد
لعيد
لغات
لغته
لغرض
لغرف
لغزة
لغزو
لغسل
لغوي
لغير
لفاف
لفتت
لفتح
لفحص
لفرز
لفرص
لفرض
لفرع
لفرق
لفشل
لفصل
لفعل
لفكر
لفهم
لفوز
لفير
لفيف
لفيل
لقاء
لقاح
لقبه
لقتل
لقرب
لقسم
لقصر
لقصف
لقطر
لقطع
لقلب
لقمة
لقمع
لقوا
لقول
لقوى
لقيت
لقيم
لكأس
لكأن
لكار
لكان
لكبح
لكبر
لكتب
لكثر
لكرة
لكسب
لكسر
لكشف
لكنه
لكون
للأب
للأخ
للأم
للأن
للإن
للاخ
للام
للبت
للبث
للبر
للتب
للتخ
للتر
للتو
للجن
للجه
للجو
للحب
للحج
للحد
للحق
للحل
للخط
للدم
للرد
للسر
للسك
للسن
للشؤ
للشئ
للشر
للشك
للصف
للصم
للضف
للطب
للطن
للعب
للغة
للغد
للفئ
للفت
للفن
للقب
للقص
للكر
للكل
للمح
للمخ
للمد
للمس
للمن
للنح
للنص
للني
لمثل
لمحو
لمدة
لمدد
لمدن
لمرة
لمرض
لمسة
لمست
لمسح
لمصر
لمقر
لملء
لملف
لمنح
لمنع
لميس
لنجد
لنجم
لنحو
لندن
لنرى
لنزع
لنشر
لنصف
لنصل
لنظر
لنظم
لنفس
لنقص
لنقل
لنمو
لنهج
لنهر
لنوع
لنيل
لهجة
لهدف
لهدم
لهذا
لهذه
لهما
لهيب
لواء
لوبن
لوبو
لوبي
لوتا
لوثر
لوجه
لوجو
لوحة
لوحت
لوحظ
لودر
لورا
لورد
لوري
لوزن
لوسي
لوصف
لوضع
لوفد
لوقا
لوقت
لوقف
لوكا
لولا
لولد
لولو
لولي
لومي
لونغ
لونه
لويز
لويس
لياق
ليال
ليبر
ليبق
ليبي
ليتر
ليتم
ليجد
ليحل
ليدز
ليدي
ليرة
ليرد
ليرس
ليزا
ليزر
ليست
ليسو
ليصل
ليضع
ليظل
ليفي
ليقف
ليكن
ليلا
ليلة
ليلى
ليلي
ليما
لينا
ليند
لينش
لينك
ليون
مآثر
مآخذ
مآرب
مآسي
مأخذ
مأدب
مأرب
مأزق
مأمن
مأوى
مؤثر
مؤجر
مؤجل
مؤخر
مؤدي
مؤذن
مؤرخ
مؤسس
مؤسف
مؤشر
مؤقت
مؤكد
مؤلف
مؤلم
مؤمن
مؤهل
مؤيد
مئات
مئتي
مئير
مائة
مائت
مائل
مائي
ماتت
ماجد
مادة
مادي
ماذا
مارت
مارد
مارس
مارش
مارك
ماري
مازن
ماسا
ماسة
ماشي
ماضى
ماضي
ماكس
مالا
مالك
ماله
مالى
مالي
مانع
مانو
ماهر
ماهو
ماهي
مايا
ماير
مايك
مايو
مباح
مبار
مبال
مبان
مبدأ
مبدع
مبدي
مبرح
مبرد
مبرر
مبرم
مبسط
مبشر
مبطن
مبعث
مبكر
مبلغ
مبنى
مبني
مبهر
مبهم
مبيت
مبيض
مبيع
مبين
متاح
متبع
متجر
متجه
متحد
متحف
متخذ
متدن
مترا
مترو
متري
متزن
متسع
متصل
متعب
متعة
متفق
متكي
متهم
متوج
متين
مثار
مثال
مثبت
مثقف
مثقل
مثلا
مثلت
مثلث
مثله
مثمر
مثمن
مثني
مثول
مثير
مثيل
مجاز
مجال
مجبر
مجحف
مجدل
مجدى
مجدي
مجرد
مجرم
مجسد
مجسم
مجلة
مجلد
مجلس
مجمد
مجمع
مجمل
مجند
مجهر
مجهز
مجيب
مجيد
محاذ
محاط
محال
محام
محبة
محبط
محبو
محبي
محتج
محتل
محدث
محدد
محدق
محرج
محرر
محرز
محرض
محرك
محرم
محزن
محسن
محصل
محصن
محضر
محطة
محفز
محفل
محقق
محكم
محلا
محلل
محله
محلى
محلي
محمد
محمل
محمي
محنة
محنك
محور
محول
محير
محيط
محيي
مخاض
مخاف
مخبأ
مخبر
مخبز
مختص
مختل
مخجل
مخدر
مخرب
مخرج
مخزن
مخصص
مخطئ
مخطط
مخفر
مخلة
مخلص
مخول
مخيب
مخيف
مخيم
مداح
مدار
مدام
مدان
مداه
مدبر
مدته
مدجج
مدحت
مدخل
مدخن
مددت
مدرب
مدرج
مدرس
مدرع
مدرك
مدعم
مدعو
مدعي
مدفع
مدفن
مدقق
مدلل
مدمج
مدمر
مدمن
مدنى
مدني
مدهش
مدون
مديح
مدير
مدين
مذاق
مذبح
مذكر
مذلة
مذنب
مذهب
مذهل
مذيع
مرآة
مرئي
مرات
مراح
مراد
مرام
مران
مربح
مربط
مربع
مربك
مربي
مرتب
مرتع
مرجح
مرجع
مرحب
مرحل
مرخص
مرده
مررت
مررن
مرسل
مرسى
مرسي
مرشح
مرشد
مرصد
مرضا
مرضه
مرضى
مرضي
مرعب
مرعى
مرعي
مرفأ
مرفق
مرقد
مرقص
مركب
مركز
مرمى
مرمي
مرنة
مرهج
مرهف
مرهق
مروا
مروة
مروج
مرور
مروع
مروي
مريب
مريح
مريد
مرير
مريض
مريع
مريم
مزاج
مزاح
مزاد
مزار
مزاي
مزحة
مزعج
مزمن
مزهر
مزود
مزور
مزيج
مزيد
مزيف
مسؤل
مساء
مسار
مساس
مساع
مساف
مسام
مساو
مسبب
مسبح
مسبق
مستر
مسجد
مسجل
مسدس
مسرب
مسرح
مسطح
مسعد
مسعف
مسعى
مسفر
مسقط
مسكن
مسلح
مسلط
مسلك
مسلم
مسمع
مسمى
مسمي
مسند
مسوغ
مسير
مسيس
مشاة
مشار
مشاع
مشتت
مشتر
مشتق
مشجع
مشدد
مشرد
مشرع
مشرف
مشرق
مشعة
مشعر
مشعل
مشغل
مشقة
مشكك
مشكل
مشهد
مشوب
مشوق
مشوه
مشيئ
مشيد
مشير
مصاب
مصار
مصاص
مصاف
مصبح
مصحف
مصدر
مصدق
مصرع
مصرف
مصرى
مصري
مصعب
مصعد
مصغر
مصلح
مصمم
مصنع
مصنف
مصور
مصيب
مصير
مضاد
مضار
مضحك
مضرب
مضطر
مضيف
مضيق
مطار
مطاط
مطبخ
مطبق
مطرب
مطرد
مطعم
مطلب
مطلع
مطلق
مطمر
مطهر
مطور
مطول
مطير
مطيع
مظفر
مظلم
مظهر
معاد
معاذ
معاش
معاق
معاك
معبد
معبر
معتد
معتز
معجب
معجم
معدة
معدل
معدن
معرب
معرض
معرف
معزز
معطل
معظم
معقد
معقل
معكم
معلق
معلل
معلم
معلن
معمر
معمق
معمل
معنا
معنى
معني
معها
معهد
معهم
معوض
معيب
معين
مغال
مغبة
مغرب
مغرد
مغرم
مغزى
مغشي
مغطى
مغلف
مغلق
مغني
مغيب
مغير
مفاج
مفتش
مفتي
مفجر
مفرج
مفرح
مفرط
مفرق
مفزع
مفسر
مفصل
مفعم
مفكر
مفكك
مفلح
مفلس
مفوض
مفيد
مقار
مقاس
مقال
مقام
مقبل
مقتل
مقدر
مقدس
مقدم
مقرا
مقرب
مقرر
مقرن
مقره
مقسم
مقصد
مقصر
مقطع
مقعد
مقفل
مقلب
مقلد
مقلق
مقنع
مقهى
مقيد
مقيم
مكاب
مكان
مكبر
مكبل
مكتب
مكتظ
مكثف
مكرر
مكرس
مكرم
مكسب
مكسر
مكعب
مكلف
مكمل
مكمن
مكنت
مكنه
مكوك
مكون
مكيف
ملأت
ملاح
ملاذ
ملاع
ملاك
ملتح
ملثم
ملجأ
ملحا
ملحة
ملحق
ملحم
ملخص
ملزم
ملصق
ملعب
ملفا
ملفت
ملقة
ملكا
ملكة
ملكي
مللي
ملهم
ملوث
ملوح
ملوك
ملون
مليئ
مليا
مليح
مليك
ممتد
ممتع
ممتن
ممثل
ممدد
ممرض
ممزق
ممسك
ممكن
مملة
مملك
ممول
مميت
مميز
مناخ
مناص
مناف
منبج
منبر
منتج
منجم
منحة
منحت
منحه
منزل
منسق
منشأ
منصب
منصة
منصف
منطق
منظر
منظم
منعا
منعت
منعه
منفذ
منقذ
منكم
منها
منهج
منهم
منوط
منير
مهاب
مهام
مهبط
مهتم
مهجر
مهدت
مهدد
مهدى
مهدي
مهذب
مهرب
مهلة
مهما
مهمة
مهنا
مهنة
مهند
مهني
مهول
مهيأ
مهيئ
مهيب
مهين
مواد
مواز
مواس
موال
موته
موتو
موثق
موجب
موجة
موجز
موجه
موحد
مودع
مودي
مورا
مورت
مورد
مورس
مورو
موري
موزة
موزع
موسع
موسم
موسى
موسي
موصل
موضة
موضح
موضع
موطئ
موطن
موظف
موعد
موفد
موفق
موقت
موقع
موقف
موكب
موكل
مولد
مولر
مولع
مونت
مونو
ميال
مياه
ميتا
ميتة
ميتش
ميجا
ميدل
ميدو
ميدي
ميرا
ميري
ميزة
ميزت
ميسر
ميسى
ميسي
ميغا
ميغي
ميكا
ميكي
ميلا
ميلر
ميلو
ميلي
مينا
مينغ
ميني
ميول
نأتي
نأخذ
نأكل
نأمل
نؤكد
نؤمن
نؤيد
نائب
نائم
نابض
نابع
ناتج
ناتو
ناجح
ناجم
ناجى
ناجي
ناخب
نادر
نادم
نادى
نادي
نارى
ناري
نازح
نازك
نازل
ناسا
ناسف
ناشئ
ناشد
ناشر
ناشط
ناصح
ناصر
ناصع
ناصف
ناضج
ناضر
ناضل
ناطق
ناظر
ناظم
ناعم
نافذ
نافع
نافي
ناقة
ناقد
ناقش
ناقص
ناقل
ناكا
نالت
نامي
نانت
نانس
نانو
ناهد
ناهز
نايت
نايف
نايل
نبات
نبتة
نبحث
نبدأ
نبذل
نبلغ
نبني
نبيع
نبيل
نبيه
نتاج
نتبع
نتخذ
نتخل
نترك
نتعر
نتفق
نتلق
نتمك
نتهم
نثبت
نثمن
نجاة
نجاح
نجاد
نجار
نجحت
نجده
نجري
نجعل
نجله
نجما
نجمة
نجمه
نجهل
نجوا
نجوم
نجوى
نجيب
نجيم
نحاس
نحبه
نحدد
نحذر
نحسب
نحصل
نحضر
نحقق
نحكم
نحلم
نحمل
نحمي
نحيا
نحيل
نحيي
نخاف
نخبة
نخرج
نخسر
نخطط
نخلة
نخوض
نخيل
نداء
نداف
ندخل
نددت
ندرة
ندرس
ندرك
ندري
ندعم
ندعو
ندفع
ندوة
نديم
ندين
نذكر
نذهب
نذير
نراه
نرجس
نرجع
نرجو
نردد
نرسل
نرصد
نرضى
نرغب
نرفض
نرفع
نريد
نزار
نزاع
نزال
نزعة
نزلت
نزهة
نزوح
نزول
نزيد
نزيف
نزيل
نزيه
نسأل
نساء
نسبة
نسبت
نسبي
نسجل
نسخة
نسكت
نسلم
نسمة
نسمع
نسوا
نسور
نسوي
نسيب
نسيت
نسيج
نسير
نسيم
نشأة
نشأت
نشاط
نشبت
نشجع
نشرت
نشره
نشطة
نشعر
نشكر
نشهد
نشوء
نشوب
نشوة
نشوف
نشيد
نشير
نشيط
نصاب
نصار
نصبت
نصبو
نصحت
نصدر
نصدق
نصري
نصنع
نصوص
نصيب
نصية
نصير
نصيف
نضال
نضمن
نضيع
نضيف
نطاق
نطبق
نطرح
نطلب
نطلع
نطلق
نطمح
نطور
نظام
نظرا
نظرة
نظرت
نظرك
نظره
نظري
نظمت
نظمه
نظهر
نظير
نظيف
نعبر
نعتز
نعرض
نعرف
نعطي
نعلق
نعلم
نعلن
نعمة
نعمل
نعود
نعوم
نعيد
نعيش
نعيم
نغفل
نغير
نفاد
نفاذ
نفاق
نفاه
نفتح
نفذت
نفذه
نفرح
نفرض
نفسك
نفسه
نفسى
نفسي
نفضل
نفطي
نفعا
نفعل
نفقة
نفقد
نفكر
نفهم
نفوذ
نفور
نفوس
نفوق
نفيه
نقاء
نقاب
نقاد
نقاش
نقاط
نقال
نقبل
نقتر
نقدا
نقدر
نقدم
نقدي
نقرأ
نقرر
نقصا
نقصد
نقطة
نقلا
نقلة
نقلت
نقله
نقلو
نقمة
نقود
نقوش
نقول
نقوم
نقيب
نقية
نقيض
نقيم
نكبة
نكتب
نكتة
نكتف
نكرر
نكسة
نكمل
نكهة
نكون
نلتف
نلجأ
نلحظ
نلعب
نلمس
نلوم
نمثل
نمضي
نملك
نمنح
نمنع
نموا
نمور
نموه
ننتج
ننتق
ننجح
ننسى
ننشد
ننشر
ننصح
ننظر
ننفذ
ننقل
ننكر
نهاد
نهار
نهتم
نهجا
نهجه
نهضة
نهضت
نهنئ
نهوض
نواب
نواح
نواد
نوار
نواز
نواف
نوال
نوبل
نوجه
نورا
نورث
نوري
نوضح
نوعا
نوعه
نوفر
نوفق
نوفل
نوفو
نوقف
نولي
نومه
نووى
نووي
نوير
نويل
نيات
نيام
نيته
نيفي
نيكس
نيكو
نيكي
نيوز
هائل
هابط
هابل
هاتف
هاجر
هاجس
هاجم
هادئ
هادف
هادى
هادي
هارب
هارت
هارد
هاري
هاشم
هالة
هاما
هامة
هامش
هانئ
هانت
هاند
هانز
هانس
هانى
هاني
هاوس
هاون
هايد
هايف
هايل
هباء
هبات
هبطت
هبوب
هبوط
هتاف
هتلر
هجرة
هجمة
هجوم
هجين
هدأت
هداف
هددت
هدرا
هدفا
هدفه
هدفي
هدمت
هدنة
هدوء
هدية
هدير
هذين
هراء
هربا
هربت
هرعت
هرمز
هروب
هريد
هزات
هزاع
هزمت
هزيل
هزيم
هشام
هضبة
هطول
هكذا
هلال
همام
هموم
هناء
هناك
هندي
هنرى
هنري
هنود
هنية
هواء
هواة
هوبس
هوجو
هوغو
هوكس
هولي
هونج
هونغ
هوية
هيأت
هيئة
هيئت
هيام
هيبة
هيثم
هيدا
هيرش
هيرو
هيفا
هيكل
هيلد
هيلز
هيلي
هيوز
وآخر
وآله
وآمل
وآمن
وأبو
وأبي
وأتت
وأتم
وأثر
وأثن
وأجد
وأجر
وأجل
وأحب
وأحد
وأخت
وأخذ
وأخر
وأخش
وأخص
وأخف
وأخو
وأدب
وأدت
وأدل
وأرض
وأسر
وأسس
وأسف
وأسم
وأشد
وأشر
وأصر
وأصل
وأضر
وأضف
وأظن
وأعد
وأعط
وأغن
وأفق
وأقر
وأقل
وأكد
وأكل
وألا
وألف
وألق
وألم
وأما
وأمر
وأمس
وأمل
وأمن
وأمه
وأنا
وأنت
وأنه
وأهد
وأهل
وأهم
وأود
وأول
وأيا
وأيد
وأين
وإثر
وإخو
وإذا
وإلا
وإلى
وإلي
وإما
وإنن
وإنه
وئام
وائل
وابد
وابن
وابو
واتس
واثر
واثق
واثن
واجب
واجه
واحب
واحة
واحت
واحد
واخت
واخذ
واخر
واخو
وادع
وادي
واذا
وارت
وارد
وارض
وارن
واست
واسر
واسط
واسع
واسم
واصف
واصل
واضح
واضع
واعد
واعط
وافت
وافد
وافر
وافق
واقر
واقع
واقف
واقل
واكد
واكر
والآ
والأ
والإ
والا
والب
والت
والث
والج
والح
والخ
والد
والر
والز
والس
والش
والص
والض
والط
والع
والغ
والف
والق
والم
واله
والى
واما
وامت
وامر
وامس
وامن
وانا
وانت
وانغ
وانه
واهد
واهل
واهم
واود
واوص
واول
وايا
وايت
وايد
وايل
وايم
واين
وبأن
وبأي
وباء
وباب
وبات
وبار
وباع
وبال
وبان
وبتر
وبثت
وبحث
وبحر
وبحق
وبدء
وبدأ
وبدا
وبدر
وبدل
وبذا
وبذل
وبرا
وبرج
وبرر
وبرز
وبري
وبسط
وبشر
وبصر
وبصف
وبطل
وبعث
وبعد
وبعض
وبغض
وبقي
وبكر
وبكل
وبلا
وبلد
وبلغ
وبما
وبنت
وبنك
وبني
وبها
وبهذ
وبور
وبوش
وبول
وبيت
وبير
وبيع
وبين
وتبث
وتتم
وتجد
وتحب
وتحت
وتحث
وتحد
وتحر
وتحظ
وتحل
وتحي
وتدل
وترب
وترد
وترك
وترى
وتست
وتسع
وتصب
وتصد
وتصر
وتصف
وتصل
وتضع
وتضم
وتظل
وتعب
وتعد
وتعز
وتعن
وتقر
وتقع
وتقف
وتقل
وتلا
وتلك
وتمت
وتمر
وتنس
وتنص
وتنق
وتوج
وثبت
وثقت
وثقل
وثمن
وثيق
وجاء
وجاد
وجار
وجاك
وجال
وجان
وجبة
وجبل
وجدة
وجدت
وجدد
وجده
وجدي
وجذب
وجرت
وجرح
وجرى
وجري
وجزء
وجزر
وجسد
وجسر
وجعل
وجلب
وجلس
وجمع
وجها
وجهة
وجهت
وجهد
وجهك
وجهه
وجوا
وجوب
وجود
وجون
وجوه
وجيد
وجيش
وجيل
وجيه
وحار
وحاز
وحال
وحان
وحبس
وحتى
وحتي
وحثت
وحجر
وحجز
وحجم
وحدة
وحدت
وحدث
وحدد
وحدك
وحده
وحدي
وحذر
وحرب
وحرر
وحرس
وحرص
وحرف
وحرق
وحرم
وحزب
وحزم
وحزن
وحسب
وحسم
وحسن
وحشد
وحشي
وحصة
وحصد
وحصر
وحصل
وحضر
وحطم
وحظر
وحظي
وحفر
وحفظ
وحفل
وحقق
وحكم
وحلب
وحلت
وحلف
وحلق
وحلم
وحمد
وحمص
وحمل
وحوش
وحول
وحيا
وحيث
وحيد
وحين
وخاص
وخاض
وخبر
وختم
وخدم
وخرج
وخرق
وخسر
وخصص
وخضع
وخطب
وخطر
وخطط
وخطف
وخفة
وخفض
وخلص
وخلف
وخلق
وخلو
وخمس
وخوض
وخوف
وخيب
وخير
وداد
ودار
وداع
ودان
ودبي
ودخل
ودرء
ودرب
ودرس
ودعا
ودعت
ودعم
ودفع
ودفن
ودقة
ودمج
ودمر
ودور
ودول
ودون
وديا
ودية
ودير
وديع
ودين
وذات
وذاك
وذكر
وذلك
وذهب
وذوي
ورأت
ورأس
ورأو
ورأي
وراء
وراح
ورام
وراي
وربط
وربع
ورثة
ورجح
ورجل
ورحب
ورحل
ورخص
وردا
وردة
وردت
وردد
ورزق
ورسم
ورشة
ورشح
ورصد
ورضا
ورطة
ورغم
ورفح
ورفض
ورفع
ورقة
ورقم
ورقي
وركز
وركن
ورلد
ورمز
ورمي
وروح
ورود
وريث
وريف
وريم
وزاد
وزار
وزرع
وزعت
وزعم
وزمن
وزنا
وزنه
وزوج
وزيت
وزير
وزين
وسأل
وسئل
وساد
وسار
وساق
وسام
وسان
وسبب
وسبع
وسبق
وسبل
وستة
وستر
وسجل
وسجن
وسحب
وسحر
وسخر
وسدد
وسرد
وسرق
وسعت
وسعد
وسعر
وسعه
وسعى
وسعي
وسفر
وسقط
وسكن
وسلب
وسلم
وسمح
وسمع
وسمو
وسمي
وسنة
وسهر
وسهل
وسهم
وسوء
وسوف
وسوق
وسيد
وسير
وسيط
وسيف
وسيم
وشاب
وشاح
وشبه
وشجب
وشجع
وشخص
وشدد
وشرب
وشرح
وشرع
وشرف
وشرق
وشطب
وشعب
وشعر
وشغف
وشغل
وشكر
وشكك
وشكل
وشمل
وشنت
وشهد
وشهر
وشوق
وشيخ
وشيع
وشيك
وصار
وصبر
وصحة
وصحف
وصدر
وصدق
وصدم
وصرح
وصرخ
وصرف
وصعب
وصعد
وصفة
وصفت
وصفه
وصقل
وصلت
وصمة
وصمت
وصنع
وصوب
وصوت
وصور
وصول
وصون
وصيا
وصيف
وضاح
وضبط
وضرب
وضعت
وضعف
وضعه
وضعو
وضغط
وضمت
وضمن
وضوح
وضيق
وطأة
وطأت
وطار
وطال
وطبع
وطبق
وطرح
وطرد
وطرق
وطعن
وطفل
وطلب
وطنا
وطنه
وطنى
وطني
وطور
وطول
وطيب
وظفت
وظلت
وظلم
وظهر
وعاء
وعائ
وعاد
وعاش
وعام
وعان
وعبث
وعبد
وعبر
وعثر
وعجز
وعدا
وعدت
وعدد
وعدم
وعده
وعرب
وعرض
وعرف
وعرق
وعزا
وعزت
وعزز
وعزل
وعزم
وعسى
وعشر
وعشق
وعصر
وعضو
وعقب
وعقد
وعقل
وعكس
وعلا
وعلق
وعلل
وعلم
وعلى
وعلي
وعما
وعمد
وعمر
وعمق
وعمل
وعند
وعنف
وعهد
وعود
وعوض
وعون
وعيا
وعيد
وعين
وعيه
وغاب
وغاز
وغدا
وغرب
وغرس
وغرف
وغزة
وغزو
وغسل
وغضب
وغلق
وغني
وغير
وفئة
وفاء
وفاة
وفاز
وفاق
وفتح
وفجر
وفحص
وفخر
وفدا
وفرا
وفرت
وفرح
وفرد
وفرص
وفرض
وفرع
وفرق
وفسر
وفشل
وفصل
وفضح
وفضل
وفعل
وفقا
وفقد
وفقر
وفقط
وفكر
وفني
وفهم
وفود
وفور
وفوز
وفوق
وفول
وفيق
وفيه
وقاد
وقار
وقاع
وقال
وقام
وقبض
وقبل
وقتا
وقتل
وقته
وقدر
وقدم
وقذف
وقرأ
وقرب
وقرر
وقسم
وقصة
وقصر
وقصص
وقصف
وقضت
وقطر
وقطع
وقعت
وقعه
وقفة
وقفت
وقفز
وقلب
وقلت
وقلص
وقلق
وقلل
وقلم
وقمت
وقمع
وقنا
وقهر
وقوة
وقود
وقوع
وقوف
وقول
وقوى
وقوي
وقيل
وقيم
وكأس
وكأن
وكاد
وكار
وكاف
وكال
وكان
وكبد
وكبر
وكتب
وكتل
وكثر
وكذا
وكرا
وكرد
وكرر
وكرم
وكسب
وكسر
وكشف
وكفر
وكفى
وكلف
وكما
وكنا
وكنت
وكون
وكيف
وكيل
ولأن
ولاء
ولتح
ولجأ
ولحق
ولحم
ولحن
ولدت
ولدى
ولدي
ولذا
ولست
ولطف
ولعب
ولعل
ولغة
ولفت
ولفظ
ولقب
ولقد
ولقي
ولكل
ولكم
ولكن
ولكي
وللأ
وللإ
وللا
وللب
وللت
وللج
وللح
وللس
وللش
وللع
وللف
وللك
وللم
ولله
ولما
ولنا
ولها
ولهم
ولوج
وليد
وليس
وليل
وليم
ومتى
ومثل
ومجد
ومحب
ومحل
ومحو
ومدة
ومدن
ومدى
ومرت
ومرر
ومرض
ومست
ومسح
ومصر
ومضت
ومضى
ومطر
ومعه
ومغر
ومقر
ومكة
وملح
وملف
وملك
ومما
وممن
ومنح
ومنذ
ومنع
ومهد
ومهم
ومهن
وموت
ومور
ومول
ومير
وميز
وميس
وميل
وناس
ونال
ونبذ
ونبه
ونتج
ونثر
ونجا
ونجح
ونجد
ونجع
ونجل
ونجم
ونحن
ونحو
وندد
ونرى
ونزع
ونزل
ونسب
ونسخ
ونسع
ونسي
ونشأ
ونشر
ونصب
ونصح
ونصر
ونصف
ونضع
ونظر
ونظم
ونعت
ونعد
ونعم
ونفت
ونفذ
ونفس
ونفي
ونقد
ونقص
ونقل
ونمت
ونمط
ونمو
ونهب
ونهج
ونهر
ونور
ونوس
ونوع
ونوه
ونيف
ونيل
ونيو
وهاب
وهال
وهام
وهبة
وهبط
وهبه
وهبى
وهبي
وهتف
وهجر
وهدد
وهدر
وهدف
وهدم
وهدى
وهذا
وهذه
وهرب
وهزم
وهما
وهنأ
وهنا
وهند
ووتر
ووتش
ووجد
ووجه
ووحد
وورد
وورش
وورق
ووزع
ووسط
ووصف
ووصل
ووضح
ووضع
ووعد
ووعي
ووفد
ووفر
ووفق
ووقت
ووقع
ووقف
وولد
وولف
وولي
ويأس
ويؤد
ويبر
ويتم
ويجب
ويجد
ويجر
ويحب
ويحث
ويحد
ويحق
ويحل
ويخت
ويخف
ويخل
ويدل
ويرد
ويست
ويسر
ويسع
ويصب
ويصح
ويصر
ويصف
ويصل
ويضع
ويضم
ويظل
ويعد
ويعز
ويعم
ويعن
ويفر
ويقر
ويقع
ويقف
ويقل
ويلز
ويلق
ويلي
ويمد
ويمر
ويمس
ويند
وينص
وينه
ويهم
ويوم
يأبه
يأتى
يأتي
يأخذ
يأسف
يأكل
يألو
يأمر
يأمل
يؤثر
يؤجل
يؤخذ
يؤخر
يؤدي
يؤذي
يؤرخ
يؤرق
يؤسس
يؤسف
يؤشر
يؤكد
يؤلف
يؤلم
يؤمن
يؤهل
يؤول
يؤوي
يؤيد
يائس
يابس
يابو
يارا
يارب
يارد
يارو
ياري
ياسر
ياغي
يافا
يافع
يالل
ياما
يامن
يانج
يانغ
ياهو
يباع
يبال
يبحث
يبخل
يبدأ
يبدد
يبدع
يبدو
يبدي
يبذل
يبرر
يبرز
يبرم
يبشر
يبصر
يبطل
يبعث
يبعد
يبقى
يبقي
يبكي
يبلغ
يبني
يبيت
يبيح
يبيع
يبين
يتأت
يتبد
يتبع
يتبق
يتبن
يتجه
يتحد
يتحر
يتحل
يتخذ
يتخط
يتخل
يترك
يتسع
يتسم
يتسن
يتصد
يتصف
يتصل
يتضح
يتعب
يتعد
يتغذ
يتغن
يتفق
يتقن
يتلق
يتلو
يتهم
يتوج
يتوخ
يتوق
يتيح
يتيم
يثار
يثبت
يثمر
يثمن
يثني
يثور
يثير
يجبر
يجدد
يجدو
يجذب
يجرؤ
يجرب
يجرم
يجرى
يجري
يجزم
يجسد
يجعل
يجلب
يجلس
يجمع
يجنب
يجني
يجهد
يجهز
يجهل
يجوب
يجوز
يجول
يجيء
يجيب
يجيد
يجيز
يحاك
يحال
يحبذ
يحبط
يحبه
يحتج
يحتل
يحتم
يحتو
يحجب
يحجز
يحدث
يحدد
يحدق
يحذر
يحذو
يحرج
يحرر
يحرز
يحرس
يحرص
يحرض
يحرق
يحرك
يحرم
يحزن
يحسب
يحسد
يحسم
يحسن
يحشد
يحصد
يحصر
يحصل
يحصى
يحضر
يحطم
يحظر
يحظى
يحفر
يحفز
يحفظ
يحفل
يحقق
يحكم
يحكى
يحكي
يحلق
يحلل
يحلم
يحلو
يحمد
يحمل
يحمي
يحوز
يحول
يحوم
يحوي
يحيا
يحيط
يحيل
يحيى
يحيي
يخاف
يخال
يخبئ
يخبر
يختص
يختم
يخجل
يخدع
يخدم
يخذل
يخرب
يخرج
يخرق
يخسر
يخشى
يخصص
يخضع
يخطئ
يخطب
يخطر
يخطط
يخطف
يخطو
يخفض
يخفف
يخفق
يخفي
يخلص
يخلط
يخلع
يخلف
يخلق
يخلو
يخوض
يخول
يخون
يخيب
يخيف
يخيم
يدار
يدبر
يدخر
يدخل
يدخن
يدرب
يدرج
يدرس
يدرك
يدري
يدشن
يدعم
يدعو
يدعى
يدعي
يدفع
يدفن
يدقق
يدلي
يدمر
يدها
يدور
يدوم
يدوي
يدير
يديك
يديم
يدين
يديه
يذاع
يذبح
يذكر
يذهب
يذوب
يرأس
يراد
يراع
يرام
يراه
يربح
يربط
يربك
يربو
يرتب
يرتج
يرتد
يرتض
يرتق
يرجح
يرجع
يرجو
يرجى
يرحب
يرحل
يرحم
يردد
يردع
يرزح
يرزق
يرسخ
يرسل
يرسم
يرشح
يرشد
يرصد
يرضخ
يرضى
يرضي
يرعى
يرغب
يرغم
يرفض
يرفع
يرقد
يرقص
يركب
يركز
يركض
يركن
يرمز
يرمي
يرهق
يروا
يروج
يروح
يروع
يروق
يرون
يروى
يروي
يريح
يريد
يزال
يزبك
يزخر
يزرع
يزعج
يزعم
يزود
يزور
يزول
يزيد
يزيل
يزين
يسأل
يسار
يسبب
يسبح
يسبق
يستح
يستر
يسجل
يسجن
يسحب
يسحق
يسخر
يسدد
يسرا
يسرد
يسرع
يسرق
يسرن
يسرى
يسري
يسعد
يسعن
يسفر
يسقط
يسكت
يسكن
يسلب
يسلط
يسلك
يسلم
يسمح
يسمع
يسمى
يسمي
يسند
يسهر
يسهل
يسهم
يسود
يسوع
يسوق
يسير
يسيل
يشاء
يشار
يشاع
يشاي
يشبع
يشبه
يشتم
يشجع
يشدد
يشرب
يشرح
يشرع
يشرف
يشرك
يشعر
يشعل
يشغل
يشفع
يشكر
يشكك
يشكل
يشكو
يشمل
يشنه
يشهد
يشهر
يشوه
يشيد
يشير
يشيع
يصاب
يصار
يصبح
يصبو
يصحح
يصدر
يصدق
يصدم
يصرح
يصرخ
يصرف
يصطف
يصعب
يصعد
يصفق
يصفه
يصلح
يصمت
يصمد
يصنع
يصنف
يصوب
يصوت
يصور
يصوم
يصون
يصيب
يصيح
يصير
يضاف
يضبط
يضحك
يضرب
يضطر
يضعف
يضعو
يضغط
يضفي
يضمن
يضيء
يضير
يضيع
يضيف
يضيق
يطاق
يطال
يطبع
يطبق
يطرأ
يطرح
يطرد
يطرق
يطعم
يطعن
يطفئ
يطلب
يطلع
يطلق
يطمح
يطمع
يطور
يطوف
يطول
يطوي
يطيح
يطير
يطيق
يطيل
يظلم
يظهر
يعاد
يعان
يعبث
يعبد
يعبر
يعتد
يعتز
يعثر
يعجب
يعجز
يعدو
يعذب
يعرب
يعرض
يعرف
يعزز
يعزف
يعشق
يعصف
يعطل
يعطو
يعطى
يعطي
يعفي
يعقب
يعقد
يعقل
يعكر
يعكس
يعكف
يعلق
يعلم
يعلن
يعلو
يعمد
يعمق
يعمل
يعني
يعهد
يعود
يعوض
يعوق
يعول
يعيب
يعيد
يعير
يعيش
يعيق
يعين
يغدو
يغذي
يغرد
يغرق
يغرم
يغري
يغزو
يغسل
يغضب
يغطي
يغفر
يغفل
يغلب
يغلق
يغمر
يغنى
يغني
يغوص
يغيب
يغير
يفتح
يفتش
يفجر
يفحص
يفخر
يفرج
يفرح
يفرز
يفرض
يفرط
يفرغ
يفرق
يفسح
يفسد
يفسر
يفشل
يفصح
يفصل
يفضح
يفضل
يفضي
يفطر
يفعل
يفقد
يفقه
يفكر
يفلت
يفلح
يفهم
يفوت
يفوز
يفوض
يفوق
يفيد
يفيض
يقاس
يقال
يقام
يقبض
يقبع
يقبل
يقتد
يقتل
يقدر
يقدم
يقذف
يقرأ
يقرب
يقرر
يقسم
يقصد
يقصر
يقصف
يقضي
يقطع
يقطن
يقظة
يقفز
يقفل
يقلب
يقلد
يقلص
يقلق
يقلل
يقمن
يقنع
يقهر
يقود
يقوض
يقول
يقوم
يقوى
يقوي
يقيد
يقيس
يقيم
يقين
يكاد
يكبر
يكتب
يكتف
يكثر
يكثف
يكذب
يكرر
يكرس
يكرم
يكره
يكسب
يكسر
يكشف
يكفر
يكفل
يكفى
يكفي
يكلف
يكمل
يكمن
يكون
يلبث
يلبس
يلبي
يلتف
يلتق
يلجأ
يلحظ
يلحق
يلخص
يلزم
يلعب
يلغى
يلغي
يلفت
يلفظ
يلقب
يلقي
يلمح
يلمس
يلمع
يلهث
يلهم
يلهو
يلوح
يلوذ
يلوم
يليق
يليه
يمتد
يمتص
يمثل
يمحو
يمدد
يمرر
يمزج
يمزق
يمسح
يمسك
يمشي
يمضي
يمكث
يمكن
يملأ
يملك
يمنح
يمنع
يمنى
يمني
يمهد
يمهل
يموت
يمول
يميز
يميل
يمين
ينال
ينام
ينبئ
ينبض
ينبع
ينبه
ينتج
ينتم
ينته
ينجح
ينجز
ينجم
ينجو
ينخر
يندد
يندر
يندم
ينذر
ينزع
ينزف
ينزل
ينسب
ينسق
ينسى
ينشأ
ينشئ
ينشد
ينشر
ينشط
ينصب
ينصح
ينصف
ينضب
ينضج
ينضم
ينطق
ينظر
ينظم
ينعش
ينعم
ينفد
ينفذ
ينفر
ينفع
ينفق
ينفى
ينفي
ينقذ
ينقص
ينقض
ينقل
ينكر
ينمو
ينمي
ينهض
ينهي
ينوب
ينوي
يهبط
يهتز
يهتف
يهتم
يهجر
يهدأ
يهدد
يهدر
يهدف
يهدم
يهدي
يهرب
يهزم
يهمل
يهمه
يهنئ
يهود
يهوى
يهيئ
يوان
يوتا
يوثق
يوجب
يوجد
يوجه
يوحد
يوحي
يودع
يودي
يورد
يورك
يورو
يوري
يوزع
يوسع
يوسف
يوسي
يوشك
يوشي
يوصف
يوصل
يوصي
يوضح
يوضع
يوظف
يوفر
يوفق
يوقظ
يوقع
يوقف
يوكل
يوكو
يوكي
يولد
يولي
يوما
يومى
يومي
يونا
يونج
يونس
يونغ
يوني
ييأس
٢٠١١
٢٠١٢
##,00
##,05
##,10
##,11
##,12
##,13
##,14
##,15
##,16
##,17
##,18
##,19
##,20
##,21
##,22
##,24
##,25
##,27
##,30
##,35
##,40
##,45
##,50
##,55
##,75
##.03
##0,0
##0,1
##0,2
##0,3
##0,4
##0,5
##0,6
##0,7
##0,8
##0,9
##0.0
##0.1
##0.2
##0.3
##0.4
##0.5
##0.6
##0.7
##0.8
##0.9
##0،0
##0،1
##0،2
##0،3
##0،4
##0،5
##0،6
##1,0
##1,1
##1,2
##1,3
##1,4
##1,5
##1,6
##1,7
##1,8
##1,9
##1.0
##1.1
##1.2
##1.3
##1.4
##1.5
##1.6
##1.7
##1.8
##1.9
##100
##101
##102
##103
##104
##105
##106
##107
##108
##109
##110
##120
##125
##130
##140
##150
##160
##180
##1،0
##1،1
##1،2
##1،5
##2,0
##2,1
##2,2
##2,3
##2,4
##2,5
##2,6
##2,7
##2,8
##2,9
##2.0
##2.1
##2.2
##2.3
##2.4
##2.5
##2.6
##2.7
##2.8
##2.9
##200
##250
##291
##2،0
##2،1
##2،2
##2،5
##3,0
##3,1
##3,2
##3,3
##3,4
##3,5
##3,6
##3,7
##3,8
##3,9
##3.0
##3.1
##3.2
##3.3
##3.4
##3.5
##3.6
##3.7
##3.8
##3.9
##300
##338
##344
##350
##380
##391
##399
##3،1
##3،2
##4,0
##4,1
##4,2
##4,3
##4,4
##4,5
##4,6
##4,7
##4,8
##4,9
##4.0
##4.1
##4.2
##4.3
##4.4
##4.5
##4.6
##4.7
##4.8
##4.9
##400
##426
##450
##452
##4،1
##4،2
##5,0
##5,1
##5,2
##5,3
##5,4
##5,5
##5,6
##5,7
##5,8
##5,9
##5.0
##5.1
##5.2
##5.3
##5.4
##5.5
##5.6
##5.7
##5.8
##5.9
##500
##544
##5،0
##5،1
##5،2
##5،3
##5،4
##5،5
##5،6
##5،7
##6,0
##6,1
##6,2
##6,3
##6,4
##6,5
##6,6
##6,7
##6,8
##6,9
##6.0
##6.1
##6.2
##6.3
##6.4
##6.5
##6.6
##6.7
##6.8
##6.9
##600
##650
##6،1
##6،2
##7,0
##7,1
##7,2
##7,3
##7,4
##7,5
##7,6
##7,7
##7,8
##7,9
##7.0
##7.1
##7.2
##7.3
##7.4
##7.5
##7.6
##7.7
##7.8
##7.9
##700
##750
##7،1
##7،2
##8,0
##8,1
##8,2
##8,3
##8,4
##8,5
##8,6
##8,7
##8,8
##8,9
##8.0
##8.1
##8.2
##8.3
##8.4
##8.5
##8.6
##8.7
##8.8
##8.9
##800
##82%
##83%
##85%
##87%
##8،1
##8،2
##9,0
##9,1
##9,2
##9,3
##9,4
##9,5
##9,6
##9,7
##9,8
##9,9
##9.0
##9.1
##9.2
##9.3
##9.4
##9.5
##9.6
##9.7
##9.8
##9.9
##900
##9،1
##:00
##:15
##:30
##:45
##SBC
##ace
##ach
##act
##age
##ail
##ain
##air
##ala
##ali
##all
##ame
##amp
##ana
##and
##ang
##ans
##ant
##app
##ard
##are
##ari
##art
##ary
##ase
##ash
##ass
##ast
##ate
##ath
##ati
##aut
##bac
##bah
##ban
##bar
##ber
##ble
##cha
##che
##com
##con
##day
##dda
##der
##ear
##ech
##ect
##ell
##end
##ene
##ens
##ent
##ern
##ers
##ert
##ery
##ess
##est
##gen
##ger
##gin
##han
##har
##hat
##ial
##ian
##ice
##ich
##ide
##ies
##ign
##ild
##ile
##ili
##ill
##ina
##ind
##ine
##ing
##ins
##int
##ion
##ire
##ish
##ism
##iss
##ist
##ite
##ith
##iti
##its
##ity
##ium
##lar
##les
##lic
##lin
##man
##mar
##med
##mer
##min
##mon
##ner
##net
##old
##oll
##ome
##ond
##one
##ong
##ons
##ood
##ord
##ore
##orm
##ors
##ort
##ory
##ose
##ost
##our
##ous
##out
##par
##pen
##per
##ple
##put
##ral
##ran
##red
##ree
##ren
##res
##ric
##ris
##rne
##rom
##ron
##ros
##ser
##sis
##son
##str
##tal
##ten
##ter
##tic
##tin
##ton
##tor
##tra
##tre
##tri
##tro
##ual
##ult
##und
##ung
##unt
##ure
##ust
##،13
##،15
##آخذ
##آخر
##آفة
##أبو
##أتى
##أتي
##أثر
##أجل
##أحد
##أخذ
##أدب
##أدق
##أدى
##أذن
##أسس
##أشد
##أكد
##أكل
##ألف
##أما
##أمر
##أمل
##أمن
##أهل
##أول
##ؤثر
##ؤجل
##ؤخذ
##ؤخر
##ؤدى
##ؤدي
##ؤذي
##ؤرخ
##ؤسس
##ؤشر
##ؤكد
##ؤلف
##ؤمن
##ؤها
##ؤهل
##ؤوا
##ؤول
##ؤون
##ؤيد
##إذا
##إرث
##إلا
##إلى
##ئته
##ئها
##ئوا
##ئون
##ئية
##ئيل
##ئين
##اؤك
##اؤه
##ائب
##ائت
##ائج
##ائح
##ائد
##ائر
##ائس
##ائع
##ائف
##ائق
##ائك
##ائل
##ائم
##ائن
##ائه
##ائى
##ائي
##ابة
##ابت
##ابس
##ابق
##ابو
##ابي
##اته
##اثا
##اثة
##اثي
##اجا
##اجة
##اجر
##اجه
##اجي
##احة
##احت
##احى
##احي
##اخذ
##ادة
##ادت
##ادر
##ادق
##ادل
##ادم
##اده
##ادى
##ادي
##ارا
##ارة
##ارت
##ارث
##ارج
##ارد
##ارز
##ارس
##ارف
##ارق
##ارك
##اره
##ارو
##ارى
##اري
##ازح
##ازك
##ازل
##ازم
##ازو
##ازي
##اسة
##است
##اسد
##اسم
##اسو
##اسى
##اسي
##اشر
##اشف
##اشى
##اشي
##اصي
##اضة
##اضل
##اطة
##اطي
##اعب
##اعة
##اعي
##اغا
##اغو
##افة
##افت
##افع
##افق
##اقة
##اقش
##اكت
##اكس
##اكي
##الأ
##الإ
##الا
##الب
##الة
##الت
##الج
##الح
##الخ
##الد
##الر
##الز
##الس
##الش
##الع
##الف
##الق
##الك
##الم
##اله
##الو
##الى
##الي
##اما
##امة
##امس
##امل
##امي
##انت
##انج
##انغ
##انه
##انى
##اني
##اهر
##اهل
##اول
##اوى
##اوي
##ايت
##ايد
##اير
##ايز
##ايش
##ايف
##بأس
##بئر
##باء
##باب
##بات
##باج
##باح
##باخ
##باد
##بار
##باز
##باس
##باش
##باص
##باط
##باع
##باغ
##باك
##بال
##بان
##بتك
##بته
##بحث
##بحر
##بحى
##بخس
##بدء
##بدأ
##بدا
##بدت
##بدع
##بدل
##بدو
##بذخ
##بذل
##برئ
##برا
##برة
##برت
##برج
##برز
##برس
##برغ
##برق
##برك
##برو
##برى
##بري
##بسط
##بسي
##بشر
##بصر
##بصق
##بصم
##بطئ
##بطح
##بطش
##بطل
##بطن
##بعت
##بعث
##بعد
##بعض
##بغض
##بقى
##بقي
##بكت
##بكر
##بكس
##بكو
##بكى
##بكي
##بلا
##بلة
##بلج
##بلد
##بلس
##بلغ
##بلو
##بلي
##بنا
##بند
##بنك
##بنى
##بني
##بها
##بوء
##بوا
##بوب
##بوت
##بوح
##بوخ
##بود
##بور
##بوز
##بوس
##بوش
##بوط
##بوغ
##بوك
##بول
##بون
##بوه
##بوي
##بيب
##بية
##بيت
##بيح
##بيد
##بير
##بيز
##بيس
##بيش
##بيض
##بيط
##بيع
##بيك
##بيل
##بين
##بيه
##تاب
##تاج
##تاح
##تار
##تاز
##تاس
##تاغ
##تام
##تان
##تبع
##تبغ
##تبه
##تجه
##تحد
##تحر
##تحف
##تحل
##تخب
##تخذ
##تخم
##تدب
##تدل
##ترا
##ترس
##ترك
##ترن
##ترو
##تري
##تزع
##تزم
##تسر
##تسع
##تسق
##تسم
##تسن
##تسو
##تسي
##تشا
##تشر
##تشو
##تشى
##تشي
##تصف
##تصل
##تضح
##تطم
##تظم
##تعب
##تعد
##تعظ
##تعل
##تفت
##تفق
##تقص
##تقل
##تقم
##تقن
##تقى
##تقي
##تكس
##تكم
##تكن
##تكو
##تلف
##تلو
##تلي
##تمت
##تمر
##تنا
##تنج
##تنز
##تنغ
##تني
##تها
##تهم
##توا
##توب
##توت
##توج
##تور
##توس
##توش
##توف
##توك
##تول
##توم
##تون
##توي
##تيب
##تيح
##تير
##تيس
##تيش
##تيف
##تيك
##تيل
##تيم
##تين
##تيه
##ثأر
##ثاب
##ثاث
##ثار
##ثاق
##ثال
##ثام
##ثان
##ثبت
##ثرى
##ثري
##ثقب
##ثقف
##ثقل
##ثلة
##ثلث
##ثلج
##ثمر
##ثمن
##ثنا
##ثنت
##ثنى
##ثني
##ثوا
##ثوب
##ثور
##ثول
##ثوم
##ثون
##ثوي
##ثيا
##ثير
##ثيل
##ثيم
##ثين
##ثيو
##جاء
##جاب
##جات
##جاج
##جاح
##جاد
##جار
##جاز
##جاس
##جاع
##جاف
##جاك
##جال
##جام
##جان
##جاه
##جاي
##جبر
##جثة
##جثث
##جحف
##جذب
##جذع
##جرؤ
##جرب
##جرة
##جرف
##جرى
##جري
##جزء
##جزأ
##جزئ
##جزع
##جزم
##جست
##جسد
##جسر
##جسم
##جعل
##جفف
##جلة
##جلس
##جلو
##جلي
##جمع
##جمل
##جنا
##جنب
##جنة
##جنت
##جنح
##جند
##جنس
##جنى
##جني
##جهد
##جهز
##جهض
##جوا
##جوب
##جوج
##جود
##جور
##جوز
##جوس
##جوع
##جوف
##جول
##جوم
##جون
##جىء
##جيء
##جيب
##جية
##جيت
##جيد
##جير
##جيز
##جيس
##جيك
##جيل
##جين
##جيه
##جيو
##حاء
##حاب
##حات
##حاج
##حاد
##حار
##حاز
##حاش
##حاص
##حاط
##حاف
##حاق
##حال
##حام
##حان
##حتف
##حته
##حتى
##حتي
##حجب
##حجة
##حجز
##حجم
##حدث
##حدد
##حذر
##حذف
##حرج
##حرر
##حرز
##حرص
##حرف
##حرق
##حرك
##حرم
##حزب
##حزم
##حزن
##حسب
##حسم
##حسن
##حشد
##حشر
##حصد
##حصر
##حصل
##حضر
##حضن
##حطم
##حظر
##حظى
##حفز
##حفظ
##حفل
##حقق
##حكم
##حكى
##حكي
##حلة
##حمة
##حمد
##حمر
##حمض
##حمل
##حمى
##حمي
##حنا
##حنة
##حنق
##حنى
##حني
##حوا
##حوت
##حوث
##حود
##حور
##حوز
##حوش
##حوض
##حوط
##حول
##حوم
##حون
##حوى
##حوي
##حيا
##حية
##حيث
##حيص
##حيط
##حيل
##حين
##خاب
##خات
##خاذ
##خار
##خاش
##خاض
##خاف
##خال
##خام
##خان
##خبأ
##خبئ
##خبث
##خبر
##خبز
##خبط
##خبي
##ختم
##خجل
##خدر
##خدش
##خدع
##خدم
##خذة
##خرب
##خرج
##خرف
##خزن
##خسر
##خصص
##خضر
##خضع
##خطئ
##خطر
##خطط
##خطف
##خطو
##خفض
##خفف
##خفق
##خفى
##خفي
##خلد
##خلص
##خلط
##خلع
##خلف
##خلق
##خلو
##خلي
##خمد
##خنق
##خوا
##خوت
##خوذ
##خور
##خوص
##خوض
##خوف
##خول
##خون
##خيا
##خير
##خيط
##خيف
##خيل
##خيم
##خين
##خيو
##دأب
##داء
##دات
##داد
##دار
##داس
##داع
##داغ
##داف
##دام
##دان
##داو
##داي
##دته
##دحر
##دحض
##دخل
##دخن
##ددا
##ددت
##درا
##درب
##درة
##درج
##درز
##درس
##درك
##درو
##دري
##دسة
##دشن
##دعا
##دعم
##دعو
##دعى
##دعي
##دغم
##دفء
##دفئ
##دفة
##دفع
##دفن
##دقق
##دكس
##دلة
##دلي
##دمج
##دمر
##دنا
##دنغ
##دنى
##دني
##دها
##دهش
##دوا
##دوب
##دوخ
##دود
##دور
##دوس
##دوش
##دوف
##دوك
##دول
##دوم
##دون
##دوي
##ديا
##ديب
##دية
##ديد
##دير
##ديز
##ديس
##ديف
##ديك
##ديل
##ديم
##دين
##ديه
##ديو
##ذئب
##ذاب
##ذار
##ذاع
##ذاك
##ذبح
##ذرة
##ذرف
##ذعر
##ذقن
##ذكر
##ذلة
##ذلك
##ذنب
##ذهب
##ذهل
##ذوب
##ذود
##ذور
##ذوق
##ذيب
##ذيع
##رأب
##رأت
##رأس
##رأف
##رأى
##رؤى
##رئة
##رئس
##راء
##راب
##رات
##راث
##راج
##راح
##راخ
##راد
##رار
##راز
##راس
##راش
##راض
##راع
##راغ
##راف
##راق
##راك
##رام
##ران
##راه
##راي
##ربا
##ربة
##ربت
##ربح
##ربط
##ربك
##ربو
##ربى
##ربي
##رتب
##رتس
##رتق
##رتك
##رته
##رتي
##رثي
##رجئ
##رجة
##رجح
##رجس
##رجع
##رجل
##رجم
##رجو
##رجى
##رجي
##رحب
##رحل
##رحم
##رخص
##رزق
##رست
##رسخ
##رسل
##رسم
##رسو
##رسي
##رشح
##رشد
##رشي
##رصد
##رضخ
##رضى
##رضي
##رطب
##رعب
##رعة
##رعى
##رعي
##رغب
##رغم
##رغو
##رفا
##رفت
##رفد
##رفض
##رفع
##رفه
##رقة
##رقص
##رقى
##ركب
##ركة
##ركت
##ركز
##ركض
##ركع
##ركو
##ركي
##رمة
##رمز
##رمى
##رمي
##رنا
##رنة
##رنت
##رنج
##رنز
##رنس
##رني
##رها
##رهق
##رهن
##روا
##روب
##روة
##روت
##روث
##روج
##روح
##روخ
##رود
##رور
##روز
##روس
##روش
##روض
##روط
##روع
##روغ
##روف
##روق
##روك
##رول
##روم
##رون
##روه
##روى
##روي
##ريا
##ريب
##رية
##ريت
##ريث
##ريج
##ريح
##ريخ
##ريد
##رير
##ريز
##ريس
##ريش
##ريط
##ريغ
##ريف
##ريق
##ريك
##ريم
##رين
##ريو
##زاب
##زات
##زاج
##زاح
##زاخ
##زاد
##زار
##زاز
##زاع
##زاغ
##زاف
##زاق
##زاك
##زال
##زام
##زان
##زاه
##زاي
##زبد
##زحف
##زخم
##زرع
##زعج
##زعم
##زكى
##زكي
##زلة
##زلت
##زلق
##زلي
##زمو
##زمي
##زنا
##زنز
##زني
##زهد
##زهر
##زهق
##زهو
##زوا
##زوت
##زوج
##زود
##زور
##زوز
##زوع
##زوغ
##زوف
##زوك
##زول
##زوم
##زون
##زوي
##زية
##زيج
##زيح
##زيد
##زير
##زيز
##زيغ
##زيف
##زيك
##زيل
##زيم
##زين
##زيه
##سأل
##سئل
##ساء
##ساب
##سات
##ساج
##ساح
##ساخ
##ساد
##سار
##ساس
##ساف
##ساق
##ساك
##سال
##سام
##سان
##ساه
##ساو
##سبب
##سبح
##سبق
##ستا
##ستر
##ستن
##ستو
##ستي
##سجل
##سجن
##سحب
##سحر
##سحق
##سخر
##سخط
##سدد
##سرح
##سرع
##سطح
##سطر
##سطو
##سعة
##سعد
##سعف
##سعى
##سعي
##سفر
##سفك
##سفن
##سقط
##سقف
##سكا
##سكب
##سكت
##سكر
##سكن
##سكو
##سكى
##سكي
##سلا
##سلب
##سلح
##سلخ
##سلط
##سلف
##سلك
##سلم
##سلو
##سلي
##سمة
##سمح
##سمع
##سمو
##سمي
##سنا
##سنة
##سنت
##سنج
##سند
##سني
##سها
##سهر
##سهل
##سوء
##سوا
##سوب
##سود
##سور
##سوس
##سوغ
##سوف
##سوق
##سوك
##سول
##سوم
##سون
##سوي
##سىء
##سيء
##سيا
##سيب
##سية
##سيت
##سيج
##سيح
##سيخ
##سيد
##سير
##سيس
##سيف
##سيك
##سيل
##سيم
##سين
##سيو
##شأت
##شئت
##شاء
##شاب
##شاة
##شات
##شاد
##شار
##شاش
##شاع
##شاف
##شاق
##شاك
##شال
##شام
##شان
##شاه
##شاي
##شبة
##شبع
##شبك
##شبه
##شتر
##شتك
##شتي
##شجع
##شحذ
##شحن
##شخص
##شدد
##شرب
##شرح
##شرط
##شرع
##شرف
##شرق
##شرك
##شطة
##شطر
##شعب
##شعر
##شعل
##شغل
##شفا
##شفة
##شفت
##شفع
##شفق
##شفى
##شفي
##شقة
##شقق
##شكر
##شكل
##شكو
##شلة
##شلي
##شمس
##شمل
##شنز
##شنغ
##شنق
##شني
##شهد
##شهر
##شوا
##شوب
##شوت
##شود
##شور
##شوش
##شوط
##شوف
##شوك
##شون
##شوي
##شىء
##شيء
##شيا
##شيب
##شية
##شيت
##شيح
##شيخ
##شيد
##شير
##شيش
##شيع
##شيف
##شيك
##شيل
##شيم
##شين
##شيه
##شيو
##صاب
##صات
##صاد
##صار
##صاص
##صاع
##صاغ
##صاف
##صال
##صام
##صاي
##صبت
##صبح
##صبر
##صبغ
##صحة
##صحح
##صخب
##صخر
##صدر
##صدق
##صدم
##صدى
##صرت
##صرح
##صرخ
##صرف
##صعب
##صعد
##صعق
##صغر
##صفر
##صلة
##صلح
##صلى
##صمت
##صمد
##صمم
##صنع
##صنف
##صهر
##صوا
##صوب
##صوت
##صور
##صوص
##صوغ
##صوف
##صول
##صوم
##صوي
##صيب
##صيح
##صيد
##صير
##صيص
##صيغ
##صيف
##صيل
##صين
##ضاء
##ضائ
##ضاب
##ضاح
##ضاد
##ضار
##ضاض
##ضاع
##ضاف
##ضام
##ضبط
##ضجة
##ضجت
##ضجر
##ضحك
##ضحى
##ضحي
##ضرب
##ضطر
##ضعف
##ضغط
##ضلع
##ضمن
##ضنا
##ضوء
##ضوا
##ضوي
##ضيء
##ضيع
##ضيف
##ضيق
##طاء
##طاب
##طات
##طاج
##طاح
##طار
##طاس
##طاش
##طاط
##طاع
##طاف
##طاق
##طال
##طام
##طان
##طبخ
##طبع
##طبق
##طحن
##طرب
##طرة
##طرح
##طرد
##طرق
##طري
##طعم
##طعن
##طعو
##طغى
##طفأ
##طفئ
##طفح
##طقس
##طقم
##طلب
##طلة
##طلت
##طلس
##طلع
##طلق
##طلي
##طمح
##طمر
##طمس
##طمع
##طنا
##طهر
##طوا
##طوب
##طور
##طوش
##طوط
##طوع
##طوف
##طوق
##طول
##طوم
##طون
##طوى
##طوي
##طيء
##طيب
##طية
##طيح
##طير
##طيش
##طيع
##طيف
##طيق
##طيل
##طين
##ظاف
##ظام
##ظرف
##ظفر
##ظلم
##ظهر
##ظوم
##ظير
##ظيف
##عاء
##عاب
##عات
##عاج
##عاد
##عار
##عاش
##عاق
##عال
##عام
##عان
##عاه
##عبء
##عبأ
##عبئ
##عبث
##عبد
##عبر
##عتب
##عتد
##عتق
##عته
##عتي
##عثر
##عجب
##عجز
##عدد
##عدل
##عدم
##عذب
##عذر
##عرب
##عرج
##عرض
##عرف
##عرى
##عري
##عزز
##عزف
##عزل
##عسر
##عسى
##عشر
##عشق
##عصب
##عصم
##عصي
##عضو
##عطف
##عطل
##عطى
##عطي
##عظم
##عفة
##عفر
##عفو
##عقب
##عقد
##عقل
##عقم
##عكة
##عكس
##عكف
##علب
##علق
##علم
##علن
##علو
##على
##علي
##عمة
##عمد
##عمر
##عمق
##عمل
##عمي
##عند
##عنف
##عنى
##عني
##عها
##عهد
##عوا
##عوب
##عود
##عوذ
##عور
##عوش
##عوض
##عوق
##عون
##عيب
##عية
##عيد
##عير
##عيش
##عيق
##عين
##غاب
##غات
##غاث
##غاد
##غار
##غاز
##غاس
##غاط
##غاف
##غال
##غام
##غان
##غاي
##غثي
##غدا
##غدق
##غدو
##غرب
##غرد
##غرس
##غرق
##غري
##غسل
##غصن
##غضب
##غطس
##غطى
##غطي
##غفر
##غفل
##غفو
##غلا
##غلب
##غلط
##غلظ
##غلف
##غلق
##غلو
##غلى
##غلي
##غمة
##غمر
##غمز
##غمس
##غمض
##غمي
##غنا
##غند
##غنم
##غنو
##غنى
##غني
##غوا
##غوت
##غور
##غوس
##غوص
##غوغ
##غوف
##غول
##غون
##غيب
##غيت
##غيث
##غير
##غيز
##غيظ
##غيل
##غين
##فاء
##فات
##فاج
##فاخ
##فاد
##فار
##فاز
##فاس
##فاض
##فاط
##فاع
##فاف
##فاق
##فاك
##فال
##فان
##فاه
##فتا
##فتح
##فتر
##فتش
##فتق
##فتك
##فتى
##فتي
##فجر
##فحص
##فحم
##فرة
##فرت
##فرج
##فرح
##فرد
##فرز
##فرض
##فرط
##فرع
##فرغ
##فرق
##فرو
##فري
##فزع
##فسح
##فسخ
##فسد
##فسر
##فسق
##فشل
##فصح
##فصل
##فضح
##فضل
##فطر
##فعل
##فقد
##فقر
##فقه
##فكر
##فلا
##فلة
##فلت
##فلح
##فلس
##فلو
##فنا
##فند
##فنى
##فني
##فها
##فهد
##فهل
##فهم
##فوا
##فوت
##فوج
##فوح
##فود
##فور
##فوز
##فوس
##فوش
##فوض
##فوف
##فوق
##فوك
##فول
##فون
##فوه
##فيه
##قاء
##قاب
##قات
##قاح
##قاد
##قار
##قاس
##قاش
##قاص
##قاض
##قاط
##قاع
##قاف
##قاق
##قال
##قام
##قان
##قاه
##قبة
##قبح
##قبض
##قبع
##قبل
##قتل
##قته
##قحم
##قدر
##قدس
##قدم
##قذف
##قرأ
##قرب
##قرة
##قرر
##قرض
##قزم
##قسط
##قسم
##قسو
##قشر
##قشع
##قصة
##قصت
##قصد
##قصر
##قصص
##قصف
##قصي
##قضى
##قضي
##قطة
##قطر
##قطط
##قطع
##قطف
##قطن
##قعد
##قفل
##قلب
##قلة
##قلي
##قمة
##قمت
##قمص
##قنا
##قنع
##قني
##قها
##قهر
##قوا
##قوب
##قوت
##قود
##قور
##قوس
##قوش
##قوص
##قوض
##قوط
##قوع
##قوق
##قول
##قوم
##قون
##قوى
##قوي
##قيب
##قية
##قيد
##قير
##قيس
##قيق
##قيل
##قيم
##قين
##كاب
##كات
##كاد
##كار
##كاز
##كاس
##كاش
##كاف
##كاك
##كال
##كام
##كان
##كاي
##كبة
##كبت
##كبح
##كبر
##كبس
##كتب
##كتر
##كتس
##كتف
##كتو
##كتي
##كثر
##كثف
##كدت
##كذب
##كرة
##كرر
##كرز
##كرس
##كرم
##كرو
##كري
##كسب
##كسر
##كسل
##كسو
##كسي
##كشف
##كشن
##كفء
##كفأ
##كلغ
##كلف
##كلم
##كلي
##كما
##كنا
##كنت
##كنز
##كني
##كوا
##كوب
##كوت
##كود
##كور
##كوز
##كوس
##كوش
##كوف
##كوك
##كول
##كوم
##كون
##كوي
##كيا
##كيب
##كية
##كيت
##كير
##كيز
##كيس
##كيف
##كيك
##كيل
##كيم
##كين
##كيو
##لآن
##لأن
##لئك
##لئل
##لاء
##لات
##لاج
##لاذ
##لاس
##لاف
##لاق
##لام
##لان
##لبة
##لبت
##لبس
##لبى
##لبي
##لتر
##لتف
##لتك
##لته
##لتي
##لجأ
##لحظ
##لحق
##لخص
##لدا
##لدن
##لدو
##لذة
##لزم
##لسة
##لسن
##لصق
##لطخ
##لطم
##لعب
##لعق
##لغم
##لغى
##لغي
##لفا
##لفة
##لفت
##لقد
##لقى
##لقي
##لكس
##لكن
##لله
##لمح
##لمز
##لمس
##لنا
##لنج
##لند
##لهم
##لوا
##لوب
##لوث
##لوج
##لوح
##لوس
##لوش
##لوغ
##لوف
##لوك
##لول
##لوم
##لون
##لوي
##ليا
##ليب
##لية
##ليت
##ليج
##ليح
##ليز
##ليس
##ليط
##ليغ
##ليف
##ليك
##ليل
##ليم
##لين
##ليه
##ليو
##مئة
##ماء
##مات
##مار
##ماز
##ماس
##مال
##مان
##مبا
##مبر
##متد
##متر
##متص
##متع
##متك
##مته
##متى
##مثل
##محو
##مدح
##مدد
##مدن
##مرة
##مرت
##مرض
##مري
##مزج
##مزح
##مزق
##مسح
##مسك
##مشى
##مشي
##مضغ
##مضى
##مضي
##مكث
##مكن
##ملء
##ملأ
##ملة
##ملح
##ملك
##ملي
##منح
##منذ
##منع
##مهد
##موا
##موت
##موث
##موج
##موح
##مود
##مور
##موس
##موش
##مول
##مون
##موه
##مية
##ميت
##ميد
##مير
##ميز
##ميس
##ميك
##ميل
##مين
##نأى
##ناخ
##ناد
##نار
##ناز
##ناس
##ناش
##ناق
##ناك
##نبأ
##نبؤ
##نبئ
##نبذ
##نبش
##نبض
##نتج
##نتر
##نتس
##نته
##نتي
##نجا
##نجة
##نجت
##نجح
##نجر
##نجز
##نجف
##نجم
##نجو
##نجي
##نحن
##نحو
##نخب
##ندا
##ندر
##ندز
##ندس
##ندق
##ندم
##ندو
##ندي
##نزا
##نزع
##نزف
##نزل
##نزه
##نزو
##نزي
##نسا
##نسج
##نسف
##نسق
##نسك
##نسو
##نسى
##نسي
##نشأ
##نشئ
##نشر
##نشط
##نشو
##نصت
##نصر
##نضب
##نضج
##نضم
##نطح
##نطق
##نظر
##نظف
##نظم
##نعم
##نعى
##نغا
##نغن
##نغو
##نفث
##نفذ
##نفس
##نفع
##نفق
##نفى
##نقذ
##نقص
##نقل
##نكر
##نكس
##نكو
##نمط
##نمو
##نهج
##نهض
##نوا
##نوب
##نود
##نور
##نوع
##نوف
##نوك
##نون
##نوه
##نوي
##نيء
##نيا
##نية
##نيت
##نيج
##نيز
##نيس
##نيش
##نيك
##نيه
##نيو
##هار
##هبة
##هبط
##هتف
##هتك
##هدأ
##هدئ
##هدد
##هدف
##هدم
##هده
##هذا
##هذه
##هرب
##هرة
##هرت
##هرع
##هرم
##هري
##هزم
##هطل
##هلة
##هلي
##هما
##هنأ
##هنئ
##هنا
##هود
##هور
##هيأ
##هيئ
##هيب
##هيد
##وأد
##واء
##وات
##واح
##واد
##وار
##واز
##واس
##واش
##واط
##واع
##واف
##واق
##وال
##وان
##وبا
##وبة
##وبر
##وبك
##وبو
##وبي
##وتر
##وتس
##وتش
##وتك
##وته
##وتو
##وتي
##وثب
##وثق
##وثي
##وجا
##وجب
##وجة
##وجد
##وجه
##وجو
##وجي
##وحة
##وحد
##وحش
##وحى
##وحي
##وخز
##ودا
##ودة
##ودر
##ودع
##وده
##ودو
##ودي
##ورا
##ورة
##ورت
##ورث
##ورد
##ورز
##ورف
##ورك
##ورو
##ورى
##وري
##وزا
##وزر
##وزع
##وزن
##وزو
##وزي
##وسة
##وست
##وسط
##وسع
##وسي
##وشا
##وشة
##وشن
##وشو
##وشي
##وصف
##وصل
##وصى
##وصي
##وضح
##وضع
##وطأ
##وطد
##وطن
##وطى
##وطي
##وظف
##وعا
##وعة
##وعد
##وعظ
##وعن
##وعى
##وعي
##وغا
##وغل
##وغو
##وفا
##وفت
##وفد
##وفر
##وفق
##وفو
##وفى
##وفي
##وقة
##وقد
##وقع
##وقف
##وكا
##وكر
##وكس
##وكل
##وكو
##وكي
##ولا
##ولة
##ولت
##ولد
##ولم
##وله
##ولو
##ولى
##ولي
##وما
##ومة
##ومن
##ومي
##ونج
##ونز
##ونغ
##ونه
##وني
##وها
##وهة
##وهم
##وهن
##وهو
##وهي
##وود
##ويب
##وية
##ويت
##ويج
##ويخ
##ويد
##وير
##ويس
##ويش
##ويع
##ويغ
##ويف
##ويق
##ويك
##ويل
##وين
##ويه
##يئا
##يئة
##يئت
##ياء
##ياب
##يات
##ياح
##ياد
##يار
##ياز
##ياس
##يام
##يان
##ياه
##يبة
##يبت
##يبر
##يبك
##يبي
##يتا
##يتر
##يتز
##يتس
##يتش
##يتك
##يتم
##يته
##يتو
##يتي
##يثن
##يجا
##يجة
##يجى
##يجي
##يحا
##يحة
##يحي
##يخة
##يدا
##يدة
##يدج
##يدز
##يدو
##يدي
##يرا
##يرة
##يرت
##يرز
##يرك
##يرو
##يرى
##يري
##يزا
##يزة
##يزر
##يزو
##يزي
##يسة
##يست
##يسر
##يسو
##يسي
##يشة
##يشن
##يشي
##يصم
##يضة
##يطة
##يعة
##يعى
##يعي
##يغا
##يغل
##يغن
##يغو
##يفا
##يفة
##يفت
##يفر
##يفو
##يقا
##يقة
##يقه
##يقي
##يكا
##يكت
##يكر
##يكس
##يكو
##يكي
##يلة
##يلز
##يلو
##يلي
##يمة
##يمي
##ينج
##ينز
##ينغ
##يني
##يها
##يوب
##يوت
##يود
##يور
##يوس
##يوش
##يوف
##يوم
##يون
##يير
##يين
100.0
1967.
1990.
1991.
1994.
1995.
1996.
1997.
1998.
2001.
2002.
2003.
2004.
2005.
2006.
2007.
2008.
2009.
2010.
2011.
2012.
2013.
2014.
2015.
2016.
2017.
2018.
2020.
Inter
Syria
[CLS]
[PAD]
[SEP]
.
story
آثارا
آثاره
آخران
آخرها
آخرون
آخرين
آرائه
آسيوي
آشتون
آفاقا
آليات
آماله
آنذاك
أبابا
أباظة
أبالغ
أبحاث
أبراج
أبرزت
أبرمت
أبريل
أبطال
أبعاد
أبلغت
أبلغه
أبلغو
أبناء
أبنية
أبواب
أبواق
أبوال
أبوجا
أبيات
أتابع
أتاحت
أتباع
أتحدث
أتحمل
أتخيل
أتذكر
أتراك
أتصور
أتعاب
أتعلم
أتقدم
أتكلم
أتمكن
أتمنى
أتوقع
أتوقف
أتينا
أثارت
أثبتت
أثبتو
أثرها
أثرية
أثمان
أثمرت
أثناء
أثيرت
أثينا
أجابت
أجانب
أجبرت
أجراس
أجراه
أجرته
أجريت
أجزاء
أجساد
أجسام
أجلها
أجناس
أجنبى
أجنبي
أجنحة
أجندة
أجهزة
أجواء
أجوبة
أجيال
أحادي
أحاطت
أحالت
أحاول
أحباء
أحببت
أحبطت
أحبها
أحتاج
أحترم
أحجار
أحجام
أحداث
أحدثت
أحدهم
أحذية
أحرار
أحرزت
أحرزه
أحرقت
أحزاب
أحزان
أحسست
أحضان
أحفاد
أحقية
أحكام
أحلام
أحواض
أحوال
أحياء
أحيان
أخبار
أخبرت
أخبره
أختار
أختها
أخذنا
أخذها
أخرجت
أخرجه
أخصائ
أخطأت
أخطاء
أخطار
أخفقت
أخلاق
أخوات
أخيرا
أخيرة
أداؤه
أدائه
أدانت
أدبية
أدخلت
أدراج
أدرجت
أدركت
أدناه
أدوات
أدوار
أدولف
أدوية
أذنيه
أذهان
أذواق
أرادت
أراضى
أراضي
أرامك
أراها
أرباب
أرباح
أرباع
أربعة
أربيل
أرجأت
أرجاء
أرجوك
أردنا
أردني
أرسطو
أرسلت
أرشيف
أرصدة
أرضنا
أرضها
أرضهم
أرضية
أرقام
أركان
أرملة
أرمني
أرواح
أروقة
أريحا
أرينا
أرييل
أزعور
أزمات
أزمته
أزواج
أزياء
أسألك
أسئلة
أسئلت
أساسا
أساسه
أساسى
أساسي
أسامة
أسانج
أسباب
أسبوع
أستاذ
أستان
أستطع
أستون
أسراب
أسرار
أسرته
أسرتي
أسرهم
أسرية
أسسها
أسطول
أسعار
أسفار
أسفرت
أسقطت
أسلاك
أسلحة
أسلوب
أسماء
أسماك
أسماه
أسمته
أسمنت
أسموه
أسنان
أسندت
أسهمت
أسوار
أسواق
أسوان
أسياد
أسيرا
أسيرة
أسيوط
أشارت
أشارك
أشاهد
أشباح
أشباه
أشتون
أشجار
أشخاص
أشعار
أشعلت
أشغال
أشقاء
أشقائ
أشكال
أشكرك
أشلاء
أشمون
أشواط
أشياء
أصابت
أصابع
أصابه
أصالة
أصبحت
أصحاب
أصداء
أصدرت
أصدره
أصقاع
أصلية
أصناف
أصوات
أصيبت
أصيلة
أضافت
أضرار
أضعاف
أضفنا
أضلاع
أضواء
أضيفت
أطاحت
أطالب
أطباء
أطباق
أطراف
أطعمة
أطفال
أطلال
أطلقت
أطلقه
أطنان
أطوار
أطياف
أظافر
أظهرت
أعادت
أعالي
أعاني
أعباء
أعتاب
أعتبر
أعتذر
أعترف
أعتقد
أعجبت
أعداء
أعداد
أعدته
أعدها
أعراض
أعربت
أعرفه
أعصاب
أعضاء
أعطال
أعطاه
أعطيت
أعقاب
أعقبت
أعلام
أعلاه
أعلنت
أعلنه
أعمار
أعماق
أعمال
أعمدة
أعناق
أعوام
أعوان
أعياد
أعيان
أغاني
أغذية
أغراض
أغسطس
أغطية
أغلقت
أغنام
أغنية
أغوار
أفادت
أفدنة
أفراح
أفراد
أفرجت
أفرزت
أفعال
أفغان
أفقيا
أفكار
أفلام
أفندى
أفندي
أفواه
أقارب
أقامت
أقامه
أقباط
أقترح
أقدام
أقدمت
أقراص
أقرها
أقساط
أقسام
أقصاه
أقطاب
أقطار
أقفلت
أقلام
أقلية
أقمار
أقوال
أقيمت
أكتاف
أكدته
أكدنا
أكدوا
أكراد
أكسيد
أكفاء
أكملت
أكواب
أكوام
أكياس
أكيدة
ألبان
ألبرت
ألبوم
ألبير
ألحان
ألحقت
ألزمت
ألسنة
ألعاب
ألغام
ألغيت
ألفاظ
ألفين
ألقاب
ألقاه
ألقيت
ألكسي
ألمان
ألوان
أليست
أليكس
أمارس
أماكن
أمامه
أمانا
أمانة
أماني
أمبير
أمتار
أمتنا
أمثال
أمثلة
أمجاد
أمراء
أمراض
أمرنا
أمرها
أمرهم
أمرين
أمسية
أمضاه
أمضوا
أمطار
أمكنة
أملاك
أملها
أمناء
أمننا
أمنها
أمنيا
أمنية
أمهات
أمواج
أموال
أمورا
أميال
أميرة
أميمة
أمينا
أمينة
أناسا
أناشد
أنباء
أنبوب
أنتجت
أنتظر
أنجبت
أنجزت
أنجلس
أنحاء
أندرو
أندية
أنشأت
أنشئت
أنشطة
أنصار
أنطون
أنظار
أنظمة
أنغام
أنفاس
أنفاق
أنفقت
أنقاض
أنقذت
أنقرة
أنماط
أنواع
أهالي
أهداف
أهداه
أهلنا
أهلها
أهلهم
أهلية
أهملت
أهمها
أهمية
أهواء
أوائل
أواخر
أواسط
أواصر
أوافق
أوامر
أوبرا
أوتار
أوجاع
أوجدت
أوراق
أورام
أوربا
أوربت
أوردت
أورده
أوزان
أوزيل
أوساط
أوسلو
أوشكت
أوصاف
أوصال
أوصلت
أوضاع
أوضحت
أوطان
أوغلو
أوقات
أوقاف
أوقعت
أوقفت
أوكار
أوكتا
أوكلت
أولئك
أولاد
أولها
أولية
أوهام
أيادي
أياكس
أيتام
أيلول
إبادة
إبداء
إبداع
إبراز
إبرام
إبريل
إبطال
إبعاد
إبقاء
إبلاغ
إبليس
إتاحة
إتباع
إتحاد
إتصال
إتفاق
إتقان
إتلاف
إتمام
إثارة
إثبات
إثراء
إثرها
إجابة
إجازة
إجبار
إجراء
إجلاء
إجلال
إجماع
إجهاض
إحالة
إحباط
إحداث
إحراج
إحراز
إحراق
إحساس
إحسان
إحصاء
إحضار
إحكام
إحلال
إحياء
إخبار
إخراج
إخضاع
إخطار
إخفاء
إخفاق
إخلاء
إخلاص
إخلال
إخماد
إخوان
إخوته
إدارة
إدارى
إداري
إدانة
إدخال
إدراج
إدراك
إدريس
إدعاء
إدماج
إدمان
إدمون
إذاعة
إذاعي
إذلال
إرادة
إرادي
إرباك
إرجاء
إرجاع
إرساء
إرسال
إرشاد
إرضاء
إرنست
إرهاب
إرهاق
إزالة
إزعاج
إساءة
إستاد
إسحاق
إسراء
إسعاد
إسعاف
إسقاط
إسكات
إسكان
إسلام
إسناد
إسهام
إشادة
إشارة
إشاعة
إشراف
إشراق
إشراك
إشعار
إشعاع
إشعال
إشغال
إشكال
إشهار
إصابة
إصابت
إصدار
إصرار
إصلاح
إضاءة
إضافة
إضافى
إضافي
إضراب
إضعاف
إضفاء
إطفاء
إطلاع
إطلاق
إظهار
إعادة
إعارة
إعاقة
إعانة
إعجاب
إعداد
إعدام
إعصار
إعطاء
إعفاء
إعلام
إعلان
إعمار
إعمال
إغاثة
إغراء
إغراق
إغفال
إغلاق
إغماء
إفادة
إفراز
إفساد
إفشال
إفطار
إفلاس
إقالة
إقامة
إقبال
إقحام
إقدام
إقرار
إقراض
إقصاء
إقصائ
إقفال
إقلاع
إقليم
إقناع
إكرام
إكساب
إكسبو
إكليل
إكمال
إلحاق
إلزام
إلصاق
إلغاء
إلقاء
إلهام
إلياس
إليسا
إليكم
إلينا
إليها
إليهم
إمارة
إمداد
إمرأة
إمساك
إمعان
إمكان
إنارة
إنتاج
إنجاب
إنجاح
إنجاز
إنذار
إنزال
إنسان
إنشاء
إنصاف
إنعاش
إنفاذ
إنفاق
إنقاذ
إنقاص
إنكار
إنماء
إنهاء
إنهما
إهانة
إهداء
إهدار
إهمال
إياها
إياهم
إيبدو
إيجاد
إيجار
إيداع
إيذاء
إيذان
إيراد
إيران
إيريك
إيرين
إيصال
إيضاح
إيغور
إيفاد
إيفان
إيقاظ
إيقاع
إيقاف
إيلات
إيلان
إيمان
إيناس
إيهاب
إيهام
إيهود
إيواء
ابابا
ابتدأ
ابتدع
ابتسم
ابتعد
ابتكر
ابتلع
ابتلي
ابحاث
ابداء
ابداع
ابراز
ابرام
ابرشي
ابرمت
ابريل
ابطال
ابعاد
ابقاء
ابلاغ
ابلغت
ابناء
ابنته
ابنتى
ابنتي
ابنها
ابواب
اتاحة
اتباع
اتبعت
اتبعه
اتجاه
اتجهت
اتحاد
اتخاذ
اتخذت
اتخذه
اتخذو
اتذكر
اتزان
اتساع
اتسعت
اتسمت
اتصال
اتصلت
اتضاح
اتفاق
اتفقا
اتفقت
اتقان
اتكلم
اتلاف
اتمام
اتهام
اتهمت
اتهمو
اتوقع
اتيان
اتيحت
اثارت
اثبات
اثبتت
اثناء
اثنان
اثنتي
اثنين
اجابة
اجاكس
اجانب
اجبار
اجتاح
اجتاز
اجتمع
اجتهد
اجراء
اجراه
اجرته
اجريت
اجماع
اجمال
اجنبي
اجهزة
اجواء
اجيال
احادي
احالة
احباط
احتاج
احتجت
احتجز
احتدم
احترف
احترق
احترم
احتسب
احتشد
احتضن
احتفظ
احتفل
احتكر
احتلت
احتلو
احتوت
احداث
احدهم
احرار
احراز
احراق
احرزت
احزاب
احساس
احسان
احصاء
احضار
احضان
احكام
احلال
احلام
احمدي
احوال
احياء
احيان
اخبار
اختار
اختبر
اختتم
اخترت
اخترع
اخترق
اختزل
اختصر
اختطف
اختفت
اختفى
اختلط
اختلف
اختير
اخذنا
اخراج
اخرون
اخرين
اخضاع
اخطاء
اخطار
اخفاء
اخفاق
اخلاء
اخلاص
اخلاق
اخماد
اخوان
اخيرا
اخيرة
ادائه
ادارة
اداري
ادخال
ادخلت
ادراج
ادراك
ادريس
ادعاء
ادمون
ادوات
ادوار
اذاعة
اذاعي
اذهان
ارادت
اراضي
ارباب
ارباح
ارباك
اربيل
ارتأت
ارتاح
ارتبط
ارتدت
ارتفع
ارتكب
ارتكز
اردنا
اردني
ارساء
ارسال
ارسلت
ارسين
ارشاد
ارضاء
ارضنا
ارضها
ارقام
اركان
ارنست
ارهاب
ارواح
ارينا
ازالة
ازداد
ازعاج
ازمات
ازمته
اساسا
اساسي
اسامة
اسباب
اسبوع
استاد
استاذ
استبق
استثن
استجد
استحق
استرد
استشر
استطع
استعد
استعص
استغل
استغن
استفز
استقر
استقل
استلم
استمد
استمر
استمع
استند
استهل
استوح
استول
استون
اسرار
اسرته
اسطور
اسطول
اسعار
اسعاف
اسفرت
اسقاط
اسقطت
اسكان
اسلام
اسلحة
اسلوب
اسماء
اسمنت
اسمها
اسناد
اسنان
اسهام
اسوار
اسواق
اسيوط
اسيوي
اشارة
اشارت
اشتبك
اشتبه
اشترت
اشترط
اشترك
اشترو
اشتغل
اشتمل
اشتهر
اشجار
اشخاص
اشراف
اشراك
اشعار
اشعاع
اشعال
اشغال
اشقائ
اشكال
اشياء
اصابة
اصابت
اصابع
اصبحت
اصحاب
اصدار
اصدرت
اصدره
اصرار
اصطحب
اصطدم
اصطلح
اصلاح
اصوات
اضافة
اضافت
اضافي
اضراب
اضرار
اضطرت
اضطرو
اضطلع
اضعاف
اطباء
اطراف
اطفاء
اطفال
اطلاع
اطلاق
اطلال
اطلعت
اطلقت
اطمأن
اطمئن
اطياف
اظهار
اظهرت
اعادة
اعادت
اعاقة
اعباء
اعتاد
اعتبر
اعتدت
اعتذر
اعترض
اعترف
اعتزل
اعتصم
اعتقد
اعتقل
اعتمد
اعتنق
اعجاب
اعداء
اعداد
اعدام
اعدته
اعراض
اعصاب
اعضاء
اعطاء
اعطاه
اعطيت
اعفاء
اعقاب
اعقبت
اعلام
اعلان
اعلاه
اعلنت
اعمار
اعماق
اعمال
اعوام
اعوان
اعيان
اغاسي
اغاني
اغتال
اغتصب
اغتنم
اغتيل
اغراض
اغسطس
اغفال
اغلاق
اغلقت
افادت
افتتح
افترض
افتعل
افتقد
افتكا
افراد
افراز
افرام
افطار
افعال
افكار
افلاس
افلام
اقارب
اقالة
اقامة
اقامت
اقامه
اقبال
اقتاد
اقتبس
اقتحم
اقترب
اقترح
اقترض
اقترف
اقترن
اقتصر
اقتضت
اقتنص
اقتنع
اقدام
اقرار
اقساط
اقسام
اقصاه
اقفال
اقليم
اقناع
اقوال
اقيمت
اكتسب
اكتسح
اكتشف
اكتفت
اكتمل
اكراد
اكسبو
اكسيد
اكليل
اكمال
الآتي
الآثم
الآخذ
الآخر
الآغا
الآفة
الآلة
الآلى
الآلي
الآمر
الآمن
الآية
الآيل
الأبد
الأثر
الأجد
الأجر
الأجل
الأحد
الأحس
الأحق
الأخت
الأخذ
الأخر
الأدب
الأذن
الأذى
الأرج
الأرز
الأرض
الأرق
الأست
الأسد
الأسر
الأسس
الأسط
الأسف
الأسى
الأشد
الأصح
الأصل
الأصم
الأطر
الأعم
الأفق
الأقل
الأكش
الأكل
الألب
الألف
الألم
الأمة
الأمد
الأمر
الأمس
الأمل
الأمم
الأمن
الأنا
الأنف
الأهل
الأهم
الأور
الأول
الأيض
الإبر
الإبل
الإثن
الإذن
الإرث
الإست
الإسم
الإله
الابد
الابل
الابن
الاتي
الاثر
الاثن
الاجر
الاجل
الاحد
الاخت
الاخر
الادب
الاذن
الارت
الارز
الارض
الاست
الاسد
الاسر
الاسس
الاسف
الاسم
الاشع
الاصل
الاضح
الاطر
الافق
الاقل
الاكل
الالف
الالم
الامة
الامد
الامر
الامس
الامل
الامم
الامن
الانف
الاهل
الاهم
الاول
البؤر
البؤس
البئر
الباب
البار
الباز
الباس
الباص
البال
البان
الباي
البتة
البتر
البحت
البحث
البحر
البخي
البدء
البدا
البدر
البدع
البدل
البدن
البدو
البدي
البذل
البرج
البرد
البرق
البرك
البرو
البرى
البري
البسط
البشر
البشع
البصر
البصل
البصم
البطء
البطش
البطل
البطن
البعث
البعد
البعض
البعي
البغل
البقر
البقع
البكر
البلا
البلح
البلد
البلع
البلو
البلي
البنا
البنت
البند
البنك
البنى
البني
البوب
البوت
البوح
البور
البوس
البول
البوم
البون
البيت
البير
البيض
البيع
البيك
البين
التأم
التاج
التام
التاي
التبت
التبغ
التحف
التحق
الترع
الترف
الترك
التري
التزم
التسع
التصد
التطو
التعب
التفت
التقت
التقط
التقي
التكر
التلف
التمر
التنس
التنف
التهم
التوت
التور
التوك
التون
الثأر
الثدى
الثدي
الثرى
الثري
الثغر
الثقة
الثقف
الثقل
الثلث
الثلج
الثمن
الثور
الثوم
الجاد
الجار
الجاز
الجاف
الجبر
الجبس
الجبل
الجبن
الجثة
الجثث
الجدة
الجدد
الجدل
الجدي
الجذب
الجذر
الجرب
الجرح
الجرد
الجرس
الجرف
الجرم
الجري
الجزء
الجزر
الجزم
الجسد
الجسر
الجسم
الجشع
الجفر
الجفن
الجلد
الجلي
الجمر
الجمع
الجمل
الجنة
الجنح
الجند
الجنس
الجني
الجهة
الجهد
الجهر
الجهل
الجور
الجوز
الجوع
الجوف
الجوى
الجوي
الجيب
الجية
الجيد
الجير
الجيش
الجيل
الجيم
الجين
الجيو
الحاج
الحاد
الحار
الحاس
الحاق
الحال
الحان
الحبر
الحبس
الحبل
الحجة
الحجج
الحجر
الحجز
الحجم
الحجي
الحدث
الحذر
الحرب
الحرة
الحرج
الحرس
الحرص
الحرف
الحرق
الحرم
الحزب
الحزم
الحزن
الحسب
الحسد
الحسم
الحسن
الحشد
الحشو
الحصة
الحصر
الحصص
الحصن
الحصو
الحضر
الحطب
الحظر
الحفر
الحفظ
الحفل
الحقد
الحقل
الحقن
الحكم
الحكي
الحلف
الحلق
الحلم
الحلو
الحمد
الحمر
الحمص
الحمض
الحمق
الحمل
الحمى
الحنا
الحنف
الحوت
الحور
الحوش
الحوض
الحوط
الحول
الحوي
الحية
الحيز
الحين
الخاص
الخال
الخام
الخان
الخبر
الخبز
الختم
الخجل
الخدم
الخرج
الخرس
الخرف
الخرق
الخرم
الخزف
الخزي
الخشب
الخشن
الخصر
الخصم
الخضر
الخطأ
الخطب
الخطة
الخطر
الخطط
الخطف
الخفج
الخفض
الخفي
الخلا
الخلج
الخلط
الخلع
الخلف
الخلق
الخلل
الخمر
الخمس
الخور
الخوض
الخوف
الخير
الخيط
الخيل
الخيم
الداء
الدار
الداع
الدال
الدام
الدان
الداي
الدبس
الدبل
الدبي
الدحي
الدخل
الدرب
الدرج
الدرس
الدرع
الدرك
الدرن
الدري
الدسم
الدعم
الدعي
الدفء
الدفع
الدفن
الدقة
الدقى
الدلم
الدمج
الدمع
الدهر
الدهس
الدهم
الدهن
الدوخ
الدور
الدوس
الدول
الديب
الدير
الديك
الديل
الدين
الذئب
الذات
الذبح
الذرة
الذعر
الذكر
الذكي
الذمة
الذمم
الذنب
الذهب
الذهن
الذوق
الذين
الرأس
الرأى
الرأي
الرؤى
الرئة
الراب
الراس
الراك
الرام
الراي
الربح
الربط
الربع
الربو
الرتب
الرجل
الرحب
الرحم
الرخص
الردع
الرزق
الرست
الرسل
الرسم
الرشد
الرشو
الرصد
الرضا
الرضع
الرضى
الرطب
الرعا
الرعب
الرعد
الرعي
الرفض
الرفع
الرفق
الرقة
الرقص
الرقع
الرقم
الرقي
الركب
الركض
الركن
الرمح
الرمز
الرمق
الرمل
الرمي
الرهن
الروح
الروس
الروك
الروم
الروي
الريح
الريس
الريش
الريع
الريف
الريم
الزام
الزبن
الزخم
الزرع
الزرق
الزعا
الزعم
الزمر
الزمن
الزنا
الزنت
الزنج
الزند
الزنك
الزهر
الزوا
الزوج
الزور
الزيت
الزيد
الزير
الزين
السار
الساق
السام
السان
السبب
السبت
السبس
السبع
السبق
السبل
الستة
الستر
السجل
السجن
السحب
السحر
السخط
السخي
السدر
السرب
السرة
السرد
السرى
السري
السطح
السطر
السطو
السعة
السعد
السعر
السعف
السعي
السفر
السفن
السقا
السقف
السقي
السكة
السكر
السكك
السكن
السلب
السلة
السلس
السلط
السلع
السلف
السلك
السلم
السلي
السمة
السمر
السمع
السمك
السمو
السنة
السند
السني
السهر
السهل
السهم
السهو
السوء
السوا
السود
السور
السوس
السوق
السوي
السيء
السيئ
السيد
السير
السيف
السيل
السين
الشأن
الشاب
الشاذ
الشار
الشاق
الشال
الشام
الشان
الشاه
الشاى
الشاي
الشبح
الشبر
الشبك
الشبل
الشبه
الشجر
الشحن
الشحي
الشخص
الشدة
الشرب
الشرج
الشرح
الشرخ
الشرس
الشرط
الشرع
الشرف
الشرق
الشرك
الشره
الشطب
الشطر
الشطي
الشعب
الشعر
الشغب
الشغف
الشغل
الشفا
الشفة
الشقة
الشقق
الشكر
الشكل
الشلا
الشلل
الشمر
الشمس
الشمع
الشمل
الشنا
الشنط
الشهب
الشهر
الشهي
الشوا
الشوط
الشوف
الشوق
الشوك
الشوم
الشوي
الشىء
الشيء
الشيب
الشيح
الشيخ
الشيش
الشيف
الشيك
الصبح
الصبر
الصبي
الصحة
الصحف
الصحى
الصحي
الصخب
الصخر
الصدد
الصدر
الصدع
الصدف
الصدق
الصرب
الصرح
الصرع
الصرف
الصعب
الصعد
الصغر
الصفا
الصفة
الصفر
الصفو
الصقر
الصقع
الصقل
الصلب
الصلة
الصلح
الصمت
الصمد
الصنع
الصنف
الصوا
الصوت
الصور
الصوف
الصوم
الصوي
الصيت
الصيد
الصيغ
الصيف
الصين
الضار
الضال
الضبط
الضبع
الضجة
الضحك
الضخم
الضرب
الضرر
الضعف
الضغط
الضفة
الضلع
الضنك
الضوء
الضوي
الضيف
الضيق
الطار
الطاو
الطبخ
الطبع
الطبق
الطبى
الطبي
الطرا
الطرب
الطرح
الطرد
الطرف
الطرق
الطري
الطعم
الطعن
الطفل
الطقس
الطلب
الطلع
الطلق
الطمث
الطهي
الطوب
الطور
الطوق
الطول
الطيب
الطير
الطيف
الطين
الظرف
الظفر
الظلم
الظني
الظهر
العاب
العاج
العار
العاص
العال
العام
العبء
العبث
العبد
العبر
العتب
العجب
العجز
العجل
العدة
العدد
العدس
العدل
العدم
العدو
العذب
العذر
العذل
العرب
العرج
العرس
العرش
العرض
العرف
العرق
العرو
العري
العزب
العزة
العزف
العزل
العزم
العسل
العشب
العشر
العشق
العشي
العصا
العصب
العصر
العصي
العضو
العطا
العطر
العطش
العطف
العطل
العطو
العظم
العفا
العفن
العفو
العقد
العقل
العقم
العكر
العكس
العلا
العلة
العلف
العلم
العلن
العلو
العلي
العمد
العمر
العمق
العمل
العمى
العنب
العنز
العنف
العنق
العنو
العهد
العوا
العود
العوز
العوض
العون
العوي
العيب
العيد
العيس
العيش
العين
الغاء
الغاب
الغار
الغاز
الغان
الغبن
الغبي
الغجر
الغدد
الغدر
الغرب
الغرض
الغرف
الغرق
الغزل
الغزو
الغزي
الغضب
الغفي
الغلا
الغلو
الغنم
الغنى
الغني
الغوث
الغوص
الغول
الغيب
الغيث
الغير
الغيط
الغيم
الفأر
الفئة
الفار
الفان
الفاو
الفتح
الفتن
الفتى
الفتي
الفجر
الفحص
الفحم
الفخذ
الفخر
الفرا
الفرج
الفرح
الفرد
الفرز
الفرس
الفرش
الفرص
الفرض
الفرع
الفرق
الفرن
الفري
الفزع
الفسح
الفسف
الفشل
الفصح
الفصل
الفضة
الفضل
الفضي
الفطر
الفطي
الفعل
الفقر
الفقه
الفقى
الفقي
الفكر
الفلك
الفلل
الفنى
الفني
الفهد
الفهم
الفوج
الفور
الفوز
الفوع
الفول
الفيس
الفيل
الفين
القاء
القاب
القات
القار
القاص
القاع
القاه
القبة
القبر
القبس
القبض
القتل
القدح
القدر
القدس
القدم
القذف
القرب
القرد
القرش
القرص
القرض
القرع
القرف
القرق
القرم
القرن
القرى
القري
القزي
القسط
القسم
القصب
القصة
القصد
القصر
القصص
القصف
القطب
القطر
القطط
القطع
القطن
القفز
القفص
القلب
القلة
القلق
القلم
القلي
القمة
القمح
القمر
القمص
القمع
القمم
القنب
القنص
القهر
القوا
القوة
القوس
القول
القوم
القوى
القوي
القيد
القيس
القيم
الكأس
الكاب
الكات
الكار
الكاس
الكاف
الكال
الكبت
الكبد
الكبر
الكتب
الكتف
الكتل
الكثر
الكحل
الكذب
الكرا
الكرة
الكرخ
الكرد
الكرك
الكرم
الكري
الكسب
الكسر
الكسل
الكسو
الكشف
الكعب
الكعك
الكفة
الكفر
الكلب
الكلى
الكلي
الكمي
الكنز
الكهر
الكهف
الكوب
الكوت
الكود
الكور
الكوس
الكول
الكوم
الكون
الكوي
الكيب
الكيس
الكيف
الكيك
الكيل
اللائ
اللات
اللام
اللبس
اللبن
اللتي
اللثة
اللحد
اللحم
اللحن
اللحي
اللذا
اللعب
اللعن
اللغة
اللغز
اللغط
اللفت
اللفظ
اللقب
اللمس
اللمع
اللمف
اللوح
اللوز
اللوم
اللون
الليث
الليغ
الليل
اللين
المئة
الماء
المار
الماس
المال
المان
المتر
المتع
المتم
المتن
المثل
المجد
المجر
المجز
المجن
المحب
المحض
المحك
المحل
المحن
المحي
المخل
المدة
المدن
المدى
المدي
المرء
المرا
المرب
المرة
المرج
المرح
المرض
المرق
المري
المزج
المست
المسح
المسم
المسن
المشا
المشف
المشي
المصب
المصح
المصر
المصف
المصل
المضف
المضى
المضي
المطب
المطر
المطل
المعد
المعر
المعز
المغر
المغز
المقر
المقص
المقل
المقو
المقي
المكب
المكر
المكن
المكي
الملأ
الملا
الملح
الملط
الملف
الملق
الملك
الملل
الملي
الممر
الممل
المنا
المنح
المنع
المنق
المهد
المهر
المهل
المهم
المهن
الموا
الموت
الموج
المور
الموز
الموس
الموص
المول
المون
الميت
الميد
المير
الميس
الميل
الميم
الناب
النار
الناس
الناغ
الناق
النبأ
النبض
النبع
النبى
النبي
النثر
النجا
النجع
النجف
النجم
النحت
النحل
النحو
النخب
النخل
الندب
الندم
الندى
النزف
النزل
النسب
النسخ
النسر
النسق
النسل
النشء
النشا
النشر
النشط
النصب
النصح
النصر
النصف
النضج
النطق
النظر
النظم
النعم
النغم
النفس
النفط
النفع
النفق
النفي
النقب
النقد
النقر
النقص
النقض
النقط
النقل
النقي
النكا
النما
النمر
النمش
النمط
النمل
النمو
النهب
النهج
النهر
النهض
النور
النوع
النوم
النوي
النية
النيل
الهار
الهال
الهام
الهان
الهبة
الهبر
الهجر
الهجن
الهدا
الهدر
الهدف
الهدم
الهدى
الهدي
الهرب
الهرم
الهزة
الهشة
الهضم
الهلع
الهمم
الهند
الهوا
الهوة
الهوس
الهول
الهوى
الهوي
الهيب
الهيل
الواح
الوان
الواي
الوتر
الوثب
الوجع
الوجه
الوحد
الوحش
الوحل
الوحي
الودي
الورد
الورش
الورق
الورم
الوزن
الوسط
الوسم
الوشم
الوصف
الوصل
الوضع
الوطن
الوعد
الوعر
الوعظ
الوعى
الوعي
الوفا
الوفد
الوفي
الوقت
الوقف
الولا
الولد
الولي
الوهم
الويب
اليأس
الياس
اليحي
اليخت
اليسر
اليكس
اليكم
اليمن
الينا
اليها
اليهم
اليوم
اماكن
امامه
امتار
امتاز
امتدح
امتزج
امتلأ
امتلك
امتنا
امتنع
امتهن
امثال
امداد
امرأة
امراض
امطار
امكان
املاك
امناء
امنيا
امنية
امهات
اموال
امينا
انتاب
انتاج
انتبه
انتجت
انتحر
انتخب
انتزع
انتسب
انتشر
انتشل
انتصر
انتظر
انتظم
انتفض
انتقد
انتقل
انتهت
انتهج
انتهز
انتهك
انتهى
انتهي
انجاح
انجاز
انجبت
انجزت
انجلس
انحدر
انحصر
انخرط
انخفض
اندرو
اندري
اندفع
اندلع
انذار
انذاك
انزال
انزلق
انسان
انسحب
انشأت
انشاء
انشغل
انصار
انصاف
انصرف
انضمت
انطلق
انطون
انظار
انعقد
انعكس
انفاق
انفجر
انفرد
انفست
انفصل
انقاذ
انقرة
انقسم
انقضت
انقطع
انقلب
انهاء
انهار
انهما
انواع
اهالي
اهدار
اهداف
اهلها
اهلية
اهمال
اهمها
اواخر
اواصر
اوامر
اوبرا
اوراق
اوساط
اوسطي
اوسلو
اوضاع
اوضحت
اوغلو
اوقات
اوقعت
اوقفت
اولاد
اولوي
ايابا
اياكس
اياها
ايجاد
ايجار
ايداع
ايراد
ايران
ايريك
ايساف
ايصال
ايضاح
ايغور
ايفان
ايفرت
ايقاع
ايقاف
ايلول
ايمان
ايهود
بآثار
بآلام
بآيات
بأجهز
بأحرف
بأحسن
بأحقي
بأخرى
بأداء
بأربع
بأسره
بأصول
بأغلب
بأفضل
بأكبر
بأكثر
بأمان
بأمور
بأنها
بأنهم
بأيام
بأيدي
بإثار
بإشار
بإعاد
بإقال
بإمار
بإهان
بائسة
بابلو
باحثا
باخرة
باخوس
بادرت
بادية
باراك
باربر
باربي
باردة
باردو
بارزا
بارزة
باركر
بارما
بارني
بارود
باريس
بازار
باستن
باسمه
باسيل
باشرت
باصات
باطلا
باطلة
باعوا
باقية
باكثر
باكرا
باكور
بالأس
بالأم
بالأن
بالإن
بالاس
بالاك
بالام
بالان
بالبر
بالجر
بالحب
بالحج
بالحد
بالحر
بالحس
بالحص
بالحق
بالحل
بالحى
بالحي
بالخط
بالخف
بالدق
بالدم
بالدو
بالرد
بالزي
بالسب
بالسر
بالسك
بالسم
بالسن
بالصف
بالطب
بالعر
بالعز
بالغا
بالغة
بالفن
بالقر
بالكر
بالكف
بالكم
بالله
باللي
بالمح
بالمخ
بالمد
بالمر
بالمس
بالمن
بالنا
بالنص
باليد
بانجو
بانها
بانهم
باهرا
باهظا
باهظة
باولو
بايدن
بايرن
ببرود
ببريد
ببطاق
ببعيد
ببقاء
ببلاد
ببلاغ
ببلدي
ببلوغ
ببناء
ببنود
ببيان
بتأهل
بتاتا
بتبني
بتجار
بتجنب
بتحرك
بتحري
بتحسن
بتحمل
بتحول
بتخلي
بتدخل
بتراث
بتربي
بترول
بتسلم
بتسمي
بتسوي
بتصرف
بتطور
بتعدد
بتعرض
بتغير
بتفقد
بتفوق
بتقدم
بتقني
بتلاو
بتلبي
بتلقي
بتمزق
بتنحي
بتنمي
بتنوع
بتهمة
بتوصي
بتولي
بتونس
بتيار
بثبات
بثقله
بثلاث
بثورة
بثياب
بثينة
بجاتو
بجامع
بجانب
بجاية
بجدار
بجدول
بجدية
بجديد
بجرأة
بجراح
بجروح
بجسده
بجلسة
بجلطة
بجمال
بجميع
بجناح
بجنوب
بجنيف
بجهاز
بجهود
بجوار
بجواز
بجولة
بحاجة
بحادث
بحالة
بحبسه
بحثنا
بحثها
بحثية
بحدوث
بحدود
بحديث
بحديق
بحرفي
بحركة
بحروف
بحروق
بحرية
بحساب
بحصول
بحضور
بحقها
بحقهم
بحقوق
بحقيق
بحكمة
بحلول
بحماس
بحماي
بحملة
بحمول
بحوار
بحياة
بحيرة
بخاري
بخاصة
بخاصي
بخبرة
بخروج
بخصوص
بخطاب
بخطوة
بخطور
بخطوط
بخلاف
بخمسة
بخيار
بخيبة
بدأنا
بدأها
بدأوا
بدائر
بدائل
بداخل
بداعي
بدافع
بداية
بدخول
بدراس
بدران
بدرية
بدفاع
بدلات
بدلوه
بدليل
بدماء
بدمشق
بدنيا
بدنية
بدوام
بدورة
بدوره
بدوري
بدولة
بديلا
بديلة
بديهي
بذاته
بذاكر
بذريع
بذكاء
بذلنا
بذلها
بذلوه
برأسه
برأيك
برأيه
برأيي
برؤوس
برئيس
براءة
برائح
براتب
براثن
براحة
براعة
براعم
برافو
برامج
براند
برانس
براون
برايت
برايس
برايل
براين
برتبة
برجال
برحلة
برحيل
برزان
برسال
برسوم
برصاص
برصيد
برعاي
برقان
بركات
بركان
برلين
برمته
برمجة
برميل
برنار
برهان
برهنت
برهوم
برودة
برودي
بروفة
برونز
برونو
بريئا
بريئة
برياض
بريتش
بريدج
بريقه
بريكس
بريمر
بريمن
برينس
بزجاج
بزراع
بزعام
بزفاف
بزمام
بزميل
بزواج
بسؤال
بساطة
بساعة
بسباق
بستان
بسخاء
بسداد
بسرعة
بسرقة
بسرية
بسقوط
بسكين
بسلاح
بسلام
بسلطة
بسلوك
بسماع
بسياس
بسيطا
بسيطة
بشأنه
بشؤون
بشئون
بشائر
بشارة
بشارع
بشباب
بشبرا
بشبكة
بشخصي
بشراء
بشراك
بشرتك
بشرعي
بشركة
بشروط
بشرية
بشعار
بشقيق
بشقيه
بشكوى
بشمال
بصاحب
بصحبة
بصحته
بصحيف
بصدمة
بصدور
بصديق
بصراع
بصرية
بصعود
بصفات
بصفته
بصفتي
بصفوف
بصمات
بصمته
بصناع
بصوته
بصورة
بصياغ
بصيغة
بضائع
بضاعة
بضمان
بطابع
بطاقة
بطالة
بطبعه
بطريق
بطلان
بطموح
بطنطا
بطوطة
بطولة
بطيئا
بطيئة
بظروف
بظهور
بعائد
بعالم
بعبدا
بعبور
بعثات
بعدما
بعدها
بعرقل
بعروض
بعسير
بعضنا
بعضها
بعضهم
بعضهن
بعطاء
بعقلي
بعقود
بعقول
بعلاج
بعلبك
بعمان
بعمله
بعنصر
بعيدا
بعيدة
بعينه
بعيون
بغداد
بغريب
بغطاء
بغياب
بفارق
بفتاة
بفترة
بفريق
بفندق
بفوزه
بفيلم
بقائد
بقائم
بقائه
بقاعة
بقايا
بقبول
بقدرة
بقدمه
بقدوم
بقراء
بقرار
بقرية
بقسوة
بقضاء
بقضية
بقطاع
بقلوب
بقليل
بقناة
بقناع
بقوات
بقوته
بقوله
بقياس
بقيام
بقيمة
بقينا
بكامل
بكبار
بكتاب
بكثرة
بكثير
بكركي
بكسور
بكفيا
بكلام
بكلمة
بكمية
بكندا
بكوري
بكونه
بكيفي
بلاتر
بلاده
بلادي
بلازا
بلازي
بلاعب
بلاغا
بلانك
بلباس
بلباو
بلبلة
بلبيس
بلجان
بلجنة
بلحاج
بلحظة
بلدات
بلدان
بلدته
بلدتي
بلدنا
بلدها
بلدهم
بلدية
بلسان
بلطجة
بلعبة
بلعيد
بلغنا
بلغوا
بلفور
بلقاء
بلقيس
بلمار
بلندن
بلوغه
بليغة
بليون
بمؤشر
بماذا
بمبدأ
بمبلغ
بمتحف
بمجال
بمجلس
بمجمع
بمجمل
بمحرك
بمحطة
بمحكم
بمحمد
بمحيط
بمخطط
بمخيم
بمدخل
بمدرب
بمدرس
بمدير
بمرتب
بمرشح
بمركب
بمركز
بمرور
بمزاج
بمسار
بمستو
بمسجد
بمسرح
بمسقط
بمسير
بمشهد
بمشيئ
بمصنع
بمصير
بمطار
بمظهر
بمعدل
بمعرض
بمعظم
بمعهد
بمفرد
بمقال
بمقتل
بمقدم
بمقعد
بمكان
بمكتب
بملعب
بممثل
بمناخ
بمنزل
بمنصب
بمنطق
بمنفذ
بمنهج
بمهام
بمواد
بموجب
بموسم
بموعد
بموقع
بموقف
بمولد
بموهب
بمياه
بناؤه
بنائب
بنائه
بنادق
بنادي
بناية
بنجاح
بنجوم
بنزول
بنزيف
بنزين
بنسبة
بنسخة
بنشاط
بنصوص
بنصيب
بنطاق
بنظام
بنظرة
بنفسك
بنفسه
بنفسي
بنفوذ
بنقاط
بنقطة
بنوده
بنوعي
بنيان
بنيته
بنيوي
بهبوط
بهجوم
بهدوء
بهموم
بهيئة
بوابة
بواجب
بوادر
بوادي
بواقع
بوتير
بوتين
بوجوب
بوجود
بوجوه
بوخوم
بودرة
بورتو
بوردو
بورسل
بورما
بورود
بوريس
بوزيد
بوزير
بوساط
بوسطن
بوسعه
بوسكي
بوشهر
بوصفه
بوصلة
بوصول
بوضوح
بوعده
بوعود
بوفاة
بوفون
بوفيه
بوقوع
بوكير
بولاد
بولاق
بولاي
بولند
بوينج
بوينغ
بويول
بيئات
بيئته
بيئيا
بيئية
بيانا
بيانه
بيبرس
بيبسي
بيتزا
بيتنا
بيتها
بيتيس
بيدرو
بيديه
بيرتس
بيرسي
بيرلو
بيرنز
بيروت
بيرير
بيريز
بيريس
بيزنس
بيساو
بيشوى
بيضاء
بيضون
بيطار
بيطري
بيعها
بيكيت
بيكيه
بيلين
بيليه
بينما
بيننا
بينها
بينهم
بينهن
بيومى
بيونج
بيونغ
بييرو
تأبين
تأثرا
تأثرت
تأثير
تأجلت
تأجيج
تأجير
تأجيل
تأخرت
تأخره
تأخير
تأديب
تأدية
تأريخ
تأسست
تأسيس
تأصيل
تأطير
تأكدت
تأكيد
تألفت
تألقه
تأليف
تأميم
تأمين
تأهلت
تأهله
تأهيل
تأويل
تأييد
تؤهله
تابعا
تابعة
تابعت
تابعو
تابوت
تاتشر
تاركا
تاريخ
تافهة
تاكسى
تاكسي
تاليا
تايبي
تايمز
تبادر
تبادل
تبارك
تباشر
تباطؤ
تباعا
تباين
تبتسم
تبتعد
تبدلت
تبديد
تبديل
تبرعت
تبرهن
تبريد
تبرير
تبسيط
تبعات
تبعها
تبلور
تبليغ
تبناه
تبنته
تبنيه
تبيان
تبييض
تتأثر
تتأخر
تتأكد
تتألف
تتابع
تتبدل
تتبعه
تتبوأ
تتجدد
تتجسد
تتجمع
تتجنب
تتجول
تتحدث
تتحدد
تتحرر
تتحرك
تتحسن
تتحفظ
تتحقق
تتحكم
تتحمل
تتحول
تتخبط
تتخلص
تتخوف
تتخيل
تتدخل
تتذكر
تترأس
تتربع
تترجم
تتردد
تترقب
تتزام
تتزوج
تتساو
تتسبب
تتسرب
تتسلل
تتسلم
تتسيد
تتشكل
تتصدر
تتصرف
تتصور
تتضرر
تتضمن
تتطرق
تتطلب
تتطلع
تتطور
تتعاط
تتعاق
تتعال
تتعثر
تتعدى
تتعرض
تتعرف
تتعطل
تتعلق
تتعلم
تتعهد
تتغلب
تتغير
تتفاو
تتفهم
تتفوق
تتقاض
تتقبل
تتقدم
تتقلص
تتكبد
تتكرر
تتكفل
تتكلف
تتكلم
تتكون
تتلخص
تتلمذ
تتماش
تتمتع
تتمثل
تتمسك
تتمكن
تتمنى
تتميز
تتناس
تتناف
تتنفس
تتنقل
تتنوع
تتهدد
تتهمه
تتوان
تتوجه
تتوحد
تتوزع
تتوسط
تتوسع
تتوصل
تتوقع
تتوقف
تتولى
تتويج
تثبيت
تثقيف
تثمين
تجارب
تجارة
تجارى
تجاري
تجاهل
تجاوب
تجاوز
تجتاح
تجتاز
تجتذب
تجتمع
تجددت
تجديد
تجربة
تجريب
تجريد
تجريم
تجزئة
تجسيد
تجعلن
تجعله
تجفيف
تجمهر
تجميد
تجميع
تجميل
تجنبا
تجنيب
تجنيد
تجهيز
تجوال
تحارب
تحاسب
تحاشي
تحاصر
تحافظ
تحاكم
تحاكي
تحالف
تحاول
تحتاج
تحتجز
تحترق
تحترم
تحتسب
تحتضن
تحتفظ
تحتفل
تحتكر
تحتمل
تحتوي
تحتية
تحجيم
تحدثت
تحدثن
تحديا
تحديث
تحديد
تحذير
تحركت
تحرير
تحريض
تحريف
تحريك
تحريم
تحسبا
تحسنا
تحسنت
تحسين
تحصيل
تحصين
تحضير
تحطمت
تحطيم
تحفيز
تحفيظ
تحققت
تحققه
تحقيق
تحكمه
تحكيم
تحليق
تحليل
تحمله
تحميل
تحولا
تحولت
تحوير
تحويل
تحيات
تحييد
تخاطب
تخالف
تختار
تختبر
تختتم
تخترق
تختزل
تختزن
تختصر
تختفي
تختلط
تختلف
تخدير
تخرجه
تخريب
تخريج
تخزين
تخصصه
تخصيب
تخصيص
تخطيط
تخفيض
تخفيف
تخلفه
تخلله
تخليد
تخليص
تخمين
تخوفا
تخوفه
تخويف
تداخل
تدارك
تدافع
تداول
تدبير
تدخلا
تدخلت
تدخله
تدخين
تدريب
تدريس
تدشين
تدعمه
تدعيم
تدفعه
تدقيق
تدمير
تدهور
تدوير
تدويل
تدوين
تديره
تذاكر
تذبذب
تذكار
تذكرة
تذكرت
تذكير
تذليل
ترأسه
ترؤسه
ترابط
تراثي
تراجع
تراعي
ترافق
تراقب
تراكم
ترامب
ترانس
تراها
تراهن
تراوح
تراود
تربطن
تربطه
تربوي
تربية
ترتاح
ترتبط
ترتدي
ترتسم
ترتفع
ترتكب
ترتيب
ترجمة
ترجمت
ترجيح
ترحيب
ترحيل
ترخيص
ترددت
ترديد
ترسيخ
ترسيم
ترشحه
ترشيح
ترشيد
ترعاه
ترعرع
ترفيه
ترقية
ترقيع
تركته
تركزت
تركنا
تركها
تركوا
تركوه
تركيا
تركيب
تركية
تركيز
ترميم
ترهيب
ترودو
ترويج
ترويض
ترويع
تريده
تريكة
تزاحم
تزامن
تزايد
تزداد
تزدهر
تزعزع
تزكية
تزوجت
تزويج
تزويد
تزوير
تزييف
تزيين
تساءل
تساؤل
تسابق
تسارع
تساعد
تسافر
تساقط
تسامح
تساند
تساهم
تساوي
تسببت
تسببه
تستثن
تستجب
تستحق
تستدع
تستطع
تستعد
تستغل
تستفز
تستقر
تستقل
تستلم
تستمد
تستمر
تستمع
تستند
تسجيل
تسخير
تسخين
تسديد
تسريب
تسريح
تسريع
تسعير
تسعين
تسفير
تسكين
تسلسل
تسلمت
تسلمه
تسليح
تسليط
تسليم
تسمية
تسميه
تسهيل
تسوية
تسويق
تسيطر
تسيير
تسييس
تشاؤم
تشابك
تشابه
تشارك
تشافي
تشانغ
تشاهد
تشاور
تشبيه
تشتبه
تشترط
تشترك
تشترى
تشتري
تشتعل
تشتغل
تشتكي
تشتيت
تشجير
تشجيع
تشخيص
تشددا
تشديد
تشرشل
تشريح
تشريد
تشريع
تشريف
تشرين
تشطيب
تشغيل
تشكلت
تشكيك
تشكيل
تشلسي
تشنها
تشهده
تشويش
تشويق
تشويه
تشيلي
تشيني
تشييد
تشييع
تصاحب
تصادر
تصادف
تصادق
تصادم
تصاعد
تصالح
تصحيح
تصدرت
تصدره
تصدير
تصديق
تصريح
تصريف
تصطدم
تصعيد
تصفية
تصفيق
تصليح
تصميم
تصنيع
تصنيف
تصوره
تصويب
تصويت
تصوير
تضارب
تضاعف
تضافر
تضامن
تضاهي
تضخيم
تضررا
تضررت
تضطلع
تضعها
تضليل
تضمنت
تضمنه
تضمين
تضييع
تضييق
تطابق
تطارد
تطالب
تطاول
تطبيع
تطبيق
تطرقت
تطعيم
تطمئن
تطهير
تطورا
تطورت
تطوير
تطويع
تطويق
تظاهر
تظهير
تعادل
تعارض
تعارف
تعازي
تعاطف
تعاطي
تعاظم
تعافي
تعاقب
تعاقد
تعالج
تعالى
تعالي
تعامل
تعاني
تعاود
تعاون
تعايش
تعبئة
تعبيد
تعبير
تعتبر
تعتذر
تعترض
تعترف
تعتري
تعتزم
تعتقد
تعتقل
تعتمد
تعثرت
تعداد
تعديا
تعديل
تعذيب
تعرضت
تعرضه
تعرضو
تعرفت
تعرفه
تعرقل
تعريب
تعريض
تعريف
تعزية
تعزيز
تعطلت
تعطيل
تعظيم
تعقيب
تعقيد
تعقيم
تعلمت
تعليق
تعليم
تعمدت
تعمير
تعميق
تعميم
تعنيه
تعهدت
تعويض
تعيشه
تعيين
تغادر
تغذية
تغريد
تغريم
تغطية
تغلبت
تغلبه
تغليب
تغليف
تغيرت
تغييب
تغيير
تفاؤل
تفاجأ
تفاجئ
تفاحة
تفادي
تفارق
تفاري
تفاعل
تفاقم
تفاهم
تفاوت
تفاوض
تفتتح
تفترض
تفتقد
تفتقر
تفتيت
تفتيش
تفجير
تفرضه
تفرقة
تفريغ
تفريق
تفسير
تفصيل
تفضيل
تفعله
تفعيل
تفقده
تفكير
تفكيك
تفنيد
تفوقت
تفوقه
تفويض
تقابل
تقاتل
تقارب
تقارن
تقاسم
تقاضي
تقاطع
تقاعد
تقاعس
تقاوم
تقبيل
تقتحم
تقترب
تقترح
تقترن
تقتصر
تقتضي
تقتنع
تقدما
تقدمت
تقدمه
تقدير
تقديس
تقديم
تقريب
تقرير
تقسيط
تقسيم
تقصير
تقطيع
تقلصت
تقليد
تقليص
تقليل
تقنيا
تقنية
تقنين
تقوده
تقوله
تقوية
تقويض
تقويم
تقيمه
تقييد
تقييم
تكاتف
تكاثر
تكافؤ
تكافح
تكافل
تكامل
تكبدت
تكبير
تكتسب
تكتسي
تكتشف
تكتفي
تكتمل
تكتيك
تكثيف
تكذيب
تكرار
تكررت
تكريت
تكرير
تكريس
تكريم
تكساس
تكسير
تكفير
تكلفة
تكلمت
تكليف
تكوين
تكييف
تلائم
تلاحظ
تلاحق
تلازم
تلاعب
تلافي
تلاقي
تلامس
تلاها
تلاوة
تلبية
تلتزم
تلتفت
تلتقط
تلتقي
تلتها
تلتهم
تلخيص
تلزيم
تلعبه
تلفيق
تلقاه
تلقيت
تلقيه
تلميح
تلميذ
تلميع
تليها
تماثل
تمارس
تماسك
تماما
تمانع
تمايز
تمتاز
تمتزج
تمتلئ
تمتلك
تمتنع
تمثال
تمثلت
تمثله
تمثيل
تمجيد
تمحور
تمديد
تمركز
تمرير
تمريض
تمرين
تمزيق
تمسكه
تمشيط
تمكنا
تمكنت
تمكنه
تمكين
تملكه
تمليك
تمليه
تمنحه
تمنعه
تمنيت
تمهيد
تمويل
تموين
تميزت
تميزه
تمييز
تناثر
تنادى
تنادي
تنازع
تنازل
تناسب
تناسي
تناشد
تناضل
تنافس
تناقش
تناقص
تناقض
تنامي
تناهز
تناوب
تناول
تنبيه
تنتاب
تنتبه
تنتجه
تنتخب
تنتشر
تنتصر
تنتظر
تنتظم
تنتقد
تنتقل
تنتمي
تنتهج
تنتهك
تنتهى
تنتهي
تنخفض
تندرج
تندلع
تنزلق
تنزيل
تنسجم
تنسحب
تنسيق
تنشغل
تنشيط
تنصيب
تنطبق
تنطلق
تنطوي
تنظمه
تنظير
تنظيف
تنظيم
تنعدم
تنعقد
تنعكس
تنفتح
تنفجر
تنفذه
تنفرد
تنفصل
تنفيذ
تنقسم
تنقصه
تنقطع
تنقلب
تنقيب
تنقيح
تنكشف
تنموي
تنمية
تنهار
تنورة
تنوير
تنويع
تهاجم
تهاني
تهاون
تهجير
تهدئة
تهديد
تهذيب
تهريب
تهميش
تهنئة
تهويد
تهيئة
تهيمن
توابع
تواجد
تواجه
توازن
توازي
تواصل
تواضع
تواطؤ
توافد
توافر
توافق
تواكب
توالت
توالي
توتال
توترا
توثيق
توجها
توجهت
توجهه
توجهو
توجيه
توحيد
توديع
تورطه
توريث
توريد
توريس
توريط
توريه
توزعت
توزير
توزيع
توسعت
توسيع
توشكى
توصلت
توصلن
توصلو
توصية
توصيف
توصيل
توضيح
توطيد
توطين
توظيف
توعوي
توعية
توفرت
توفره
توفوا
توفيت
توفير
توفيق
توقعت
توقعو
توقفت
توقيت
توقيع
توقيف
توكيل
تولوز
توليد
توليه
توماس
تونسي
تويتر
تويني
تيتان
تيران
تيسير
تيفيز
تيمنا
تيمور
تيمية
تييري
ثأرية
ثابتا
ثابتة
ثاقبة
ثالثا
ثالثة
ثامنا
ثانوي
ثانيا
ثانية
ثروات
ثروته
ثغرات
ثقافة
ثقافى
ثقافي
ثقتها
ثقتهم
ثقيلا
ثقيلة
ثلاثة
ثلاثي
ثلاجة
ثماره
ثماني
ثمنها
ثمينا
ثمينة
ثنائي
ثنايا
ثوابت
ثورات
ثورته
ثورية
جاءوا
جاؤوا
جائزة
جاذبة
جاردن
جاريا
جارية
جازان
جاسكو
جاسوس
جاكوب
جالسا
جامدة
جامعة
جامعي
جانبه
جانبي
جانفي
جانيت
جاهدا
جاهزا
جاهزة
جاهزي
جاهين
جاويش
جايمس
جبارة
جبران
جبروت
جبريل
جبلية
جبهات
جبهته
جبهتي
جثمان
جدارة
جداول
جدران
جدعون
جدلية
جدواه
جدولة
جديته
جديدا
جديدة
جذابة
جذريا
جذرية
جذوره
جرائد
جرائم
جرابل
جراحة
جراحي
جرافة
جراما
جرانة
جراند
جرحوا
جرعات
جرمان
جريئا
جريئة
جريان
جريحا
جريدة
جريمة
جزئيا
جزئية
جزائر
جزائي
جزافا
جزاير
جزيرة
جسدها
جسديا
جسدية
جسيمة
جعبته
جعلتن
جعلته
جعلنا
جعلهم
جلباب
جلدته
جلدية
جلسات
جلسته
جلعاد
جليلة
جمارك
جماعة
جماعى
جماعي
جمانة
جمعاء
جمعته
جمعنا
جمعها
جمعية
جملته
جمهور
جميعا
جميلا
جميلة
جنائي
جناته
جنازة
جناية
جنبات
جنديا
جنرال
جنسيا
جنسية
جنوبي
جنوده
جنيفر
جنيها
جهارا
جهتها
جهتهم
جهدها
جهدهم
جهودا
جهوده
جهينة
جوائز
جوابا
جوانب
جواهر
جوزيف
جوزيه
جوسيب
جولات
جولته
جوليا
جوليو
جوميز
جونية
جونيه
جوهري
جويلي
جيرار
جيران
جيروم
جيزان
جيفري
جيلنا
جينات
جينيس
جينيف
جيهان
حاجات
حاجته
حاجزا
حاخام
حادثا
حادثة
حارقة
حازمة
حاسما
حاسمة
حاسوب
حاشدة
حاصرت
حاصلا
حاصلة
حاضرا
حاضرة
حاطوم
حافزا
حافظت
حافلا
حافلة
حاكما
حالات
حالته
حالتي
حالما
حالنا
حالها
حاليا
حاملا
حاملي
حامية
حانون
حاورت
حاولت
حاوية
حاييم
حبسهم
حبيبي
حبيقة
حتفهم
حتمية
حثيثة
حجارة
حجازى
حجازي
حجمها
حدائق
حداثة
حداثي
حدادا
حدتها
حددها
حدوثه
حدوده
حديثا
حديثة
حديثه
حديثي
حديدي
حديقة
حذرنا
حرائق
حرارة
حراري
حراسة
حربها
حربية
حردان
حرستا
حرصها
حرصهم
حرفيا
حرفية
حركات
حركته
حركتي
حركية
حرمان
حرمته
حريات
حريته
حريري
حريصا
حزبية
حزينة
حسابه
حساسة
حسبنا
حسنين
حصانا
حصانة
حصتها
حصرها
حصريا
حصرية
حصلنا
حصوله
حصيلة
حضارة
حضاري
حضانة
حضرها
حضروا
حضورا
حضوره
حظوظه
حظيرة
حفاظا
حفظهم
حفلات
حقائب
حقائق
حققته
حققنا
حققها
حققوه
حقوقه
حقيبة
حقيقة
حقيقى
حقيقي
حكايا
حكاية
حكماء
حكمها
حكومة
حكومت
حكومى
حكومي
حكيمة
حلاوة
حلايب
حلحلة
حلفاء
حلقات
حلمنا
حلوان
حلولا
حليفا
حليفة
حليفه
حليمة
حمادة
حمادى
حمادي
حماسة
حمامة
حمانا
حماية
حمدان
حمدين
حمراء
حملات
حملته
حملها
حمودة
حمولة
حميدة
حميمة
حميمي
حناجر
حوائج
حواجز
حوادث
حوارا
حواره
حواري
حوافز
حوالى
حوالي
حوران
حوزته
حولنا
حولها
حولهم
حياتك
حياته
حياتو
حياتى
حياتي
حيادي
حينئذ
حينها
حيوات
حيوان
حيويا
حيوية
خائفة
خاتمة
خاتمي
خارجة
خارجه
خارجي
خارقة
خاسرا
خاسرة
خاصية
خاضها
خاطئا
خاطئة
خاطبت
خاطفة
خافيا
خالته
خالصة
خالفت
خاليا
خالية
خامات
خامسا
خامسة
خانقة
خاوية
خبايا
خبراء
خبرات
خبرته
خبرتي
خبيثة
خبيرا
خجولة
خدمات
خدمته
خدمية
خديجة
خرائط
خرجوا
خرطوش
خروجه
خريجو
خريجى
خريجي
خريطة
خزائن
خزانة
خزينة
خسائر
خسارة
خسرنا
خسرها
خسروا
خشبية
خشيته
خصائص
خصخصة
خصوصا
خصومة
خصومه
خصيصا
خضراء
خضوعه
خطابا
خطابه
خطايا
خطبته
خطتها
خططها
خطوات
خطوته
خطورة
خطيئة
خطيرا
خطيرة
خفايا
خفيفة
خلابة
خلاصة
خلافا
خلافة
خلاقة
خلاله
خلايا
خلدون
خلفان
خلفته
خلفها
خلفهم
خلفية
خلقنا
خليجي
خليفة
خماسي
خمسين
خواطر
خورخي
خوسيه
خيارا
خيالي
خيانة
خيخون
خيرات
خيرية
خيطان
دائرة
دائري
دائما
دائمة
داخله
داخلي
دارته
داريا
دارين
داريو
داعمة
داعيا
داعية
دافعا
دافعت
دافوس
دافيد
داكار
دالاس
داليا
دامغة
دامية
دانيل
داهمت
داوود
دبابة
دبلوم
دبليو
دجاجة
دحروج
دحلان
دخلنا
دخلها
دخلوا
دخوله
دراجة
دراسة
دراسي
دراما
درامي
دراهم
دراية
درجات
دردشة
درمان
درهما
دروسا
درويش
دستور
دعائم
دعائي
دعامة
دعاني
دعاوى
دعاية
دعمنا
دعمها
دعمهم
دعوات
دعواه
دعوته
دعونا
دفاتر
دفاعا
دفاعه
دفاعي
دفعات
دفعته
دفعنا
دفعها
دفعهم
دفعوا
دقائق
دقيقا
دقيقة
دكتور
دلائل
دلالة
دليلا
دمائه
دموية
دمياط
دهشته
دوائر
دواجن
دواخل
دواعي
دوافع
دوامة
دورات
دوران
دورته
دورتي
دورنا
دورها
دورهم
دورية
دولاب
دولار
دولته
دولنا
دوليا
دولية
دونما
دويتش
دويتو
ديالى
ديانا
ديانة
ديتلي
ديديي
ديروط
ديزني
ديغول
ديفيد
ديفيز
ديفيس
ديكور
ديمبس
دينار
ديننا
دينهم
دينيا
دينية
دينيس
ديوان
دييجو
دييغو
ذاتها
ذاتيا
ذاتية
ذاكرا
ذاكرة
ذخيرة
ذرائع
ذروته
ذريعة
ذكراه
ذكرته
ذكرنا
ذكرها
ذهابا
ذهبوا
ذهبية
ذهنيا
ذهنية
ذوبان
ذويهم
رأسها
رأسهم
رأسية
رأيته
رأيكم
رأينا
رأيها
رأيهم
رؤساء
رؤيته
رؤيتي
رئاسة
رئاسى
رئاسي
رئيسة
رائحة
رائدا
رائدة
رائعا
رائعة
رابحة
رابعا
رابعة
رابيد
رابين
راتبا
راتبه
راجعت
رادار
رادعة
راديو
راسخة
راسلن
راشيا
راشيل
راضون
راضيا
راضية
راضين
رافال
رافدا
رافضا
رافضة
رافعا
رافقت
رافقه
راقصة
راقيا
راقية
راكبا
رامبو
راموس
رامون
رانيا
راهنا
راوول
رايات
رباعي
رباني
ربحية
ربطها
ربيعة
رتبته
رثائي
رجليه
رحاها
رحلات
رحلته
رحلوا
رحمته
رحمهم
رحيله
رخيصة
رديئة
ردينة
رسائل
رسالة
رسلان
رسمها
رسميا
رسمية
رسوله
رشاشة
رشاوى
رشوان
رصاصة
رصدها
رصيده
رضائي
رضوان
رعايا
رعاية
رعيته
رغبات
رغبته
رفاعي
رفاقه
رفضنا
رفضها
رفضهم
رفضوا
رفعها
رفيعة
رقابة
رقبته
رقمية
رقيقة
ركائز
ركبته
ركلات
ركنية
رمانة
رماية
رمزية
رمسيس
رمضان
رهائن
رهبان
رهيبة
رهينة
روائح
روائع
روائي
روابط
رواتب
رواجا
رواسب
روافد
رواية
روايت
روبرت
روبوت
روبير
روبين
روتين
روحية
روديك
روسيا
روسية
روسيف
روفرز
روكتس
رولان
رومان
رومني
رومية
روميو
رويال
رويتر
رويدا
ريادة
ريادي
رياشي
رياضة
رياضي
ريالا
ريحان
ريختر
ريدين
ريشار
ريغان
ريمون
رينيه
ريهام
زائدة
زائفة
زاحفة
زاخار
زاروا
زالوا
زاهية
زاوية
زبائن
زجاجة
زراعة
زراعى
زراعي
زرعها
زرقاء
زعامة
زعزوع
زعماء
زعيتر
زعيما
زعيمة
زغرتا
زغلول
زقزوق
زكريا
زلزال
زملاء
زمنيا
زمنية
زميله
زميلي
زهراء
زهران
زهيدة
زواجه
زوارق
زواره
زوايا
زوجات
زوجتك
زوجته
زوجتى
زوجتي
زوجها
زوجية
زوجين
زوليك
زيادة
زيارة
زيتون
زيدان
زينيت
زيورخ
سأقول
سألته
سألنا
سألني
سؤالا
سؤاله
سائحا
سائدا
سائدة
سائقو
سائقي
سائلا
سابعا
سابقا
سابقة
ساحات
ساحته
ساحرة
ساحقة
ساخرا
ساخرة
ساخنة
سادسا
سارتر
سارعت
سارية
ساسين
ساعات
ساعدت
ساعده
سافرت
ساقيه
ساكنا
سامبا
سامية
سانتا
سانحة
ساندت
ساندر
ساهمت
ساهمو
ساينس
سباحة
سبايس
سببها
سبحان
سبعين
سبقوه
سبنسر
سبورت
سبيرز
سبيله
ستأتي
ستأخذ
ستؤثر
ستؤدي
ستارز
ستايت
ستايل
ستبحث
ستبدأ
ستبقى
ستبقي
ستبلغ
ستتخذ
ستترك
ستتول
ستتيح
ستجرى
ستجري
ستجعل
ستجمع
ستحدث
ستحدد
ستحسم
ستحصل
ستحقق
ستحمل
ستخرج
ستخصص
ستخضع
ستخوض
ستدخل
ستدرس
ستدعم
ستدفع
ستذهب
سترسل
سترفع
ستركز
ستروس
ستريت
ستزيد
ستسفر
ستسمح
ستسير
ستشكل
ستشمل
ستشهد
ستصبح
ستصدر
ستضطر
ستطبق
ستطرح
ستطلب
ستطلق
ستظهر
ستعرض
ستعرف
ستعزز
ستعطي
ستعقد
ستعلن
ستعمل
ستعود
ستعيد
ستغير
ستفتح
ستفرض
ستفعل
ستقام
ستقدم
ستقرر
ستقود
ستقول
ستقوم
ستقيم
ستكشف
ستكلف
ستكون
ستلعب
ستمثل
ستمكن
ستمنح
ستمنع
ستنته
ستنجح
ستنشر
ستنظر
ستنظم
ستنفذ
ستنقل
ستوجه
ستوزع
ستوفر
ستوقع
ستيشن
ستيفن
سجائر
سجلات
سجلنا
سجلها
سجناء
سجينا
سحبها
سحرية
سخرية
سخونة
سخيفة
سداسي
سراحه
سرايا
سرحان
سرطان
سرعات
سرعته
سرقات
سركيس
سروال
سروره
سريان
سريرا
سريعا
سريعة
سطحية
سطوته
سعادة
سعداء
سعدان
سعدون
سعرها
سعودي
سعيدا
سعيدة
سعيهم
سفاجا
سفارة
سفراء
سفرهم
سفيان
سفيرا
سفيرة
سفينة
سقراط
سقطوا
سقوطه
سكانه
سكرية
سكنهم
سكنية
سكولا
سكوير
سكينا
سلاحا
سلاحه
سلاسة
سلاسل
سلالم
سلامة
سلبيا
سلبية
سلتيك
سلسلة
سلطات
سلطان
سلطته
سلفية
سلمان
سلماو
سلمنا
سلميا
سلمية
سلوان
سلوكه
سليمة
سماحة
سمارت
سماكة
سماها
سماوي
سمراء
سمعان
سمعته
سمعنا
سمعوا
سمنود
سموحة
سميرة
سنبقى
سنتان
سنتيم
سنتين
سندات
سنشهد
سنفعل
سنقدم
سنقوم
سنكون
سنلعب
سنوات
سنورس
سنويا
سنوية
سهرات
سهولة
سوابق
سواحل
سواها
سواهم
سوتشي
سوداء
سودان
سوريا
سورية
سوزان
سولار
سوهاج
سويدي
سويلم
سيأتى
سيأتي
سيأخذ
سيؤثر
سيؤدي
سياتل
سياحة
سياحى
سياحي
سيادة
سيادي
سيارة
سياسة
سياسى
سياسي
سيبحث
سيبدأ
سيبذل
سيبقى
سيبقي
سيبلغ
سيبوه
سيتخذ
سيترك
سيترو
سيتعي
سيتول
سيتيح
سيثير
سيجري
سيجعل
سيجمع
سيحدث
سيحدد
سيحرم
سيحسم
سيحصل
سيحضر
سيحقق
سيحكم
سيحمل
سيحول
سيخدم
سيخرج
سيخسر
سيخصص
سيخضع
سيخلف
سيخلق
سيخوض
سيدات
سيدتي
سيدخل
سيدرس
سيدعم
سيدعو
سيدفع
سيدنا
سيدني
سيذهب
سيرأس
سيرته
سيرجي
سيرسل
سيرغي
سيرفع
سيركز
سيرها
سيريز
سيزار
سيزور
سيزيد
سيسجل
سيسقط
سيسلم
سيسمح
سيسهل
سيسهم
سيسيه
سيشرف
سيشعر
سيشكل
سيشمل
سيشهد
سيصبح
سيصدر
سيصوت
سيضطر
سيضمن
سيطبق
سيطرة
سيطرت
سيطرح
سيطرو
سيطلب
سيطلق
سيظهر
سيعاد
سيعرض
سيعرف
سيعزز
سيعطي
سيعقد
سيعلن
سيعمل
سيعني
سيعود
سيعيد
سيغيب
سيغير
سيفتح
سيفرض
سيفعل
سيفقد
سيفوز
سيقبل
سيقدم
سيقرر
سيقضي
سيقود
سيقول
سيقوم
سيقيم
سيكشف
سيكلف
سيكون
سيلتق
سيلجأ
سيلحق
سيلعب
سيلفا
سيلفر
سيلفي
سيلقي
سيمثل
سيمكن
سيمنح
سيمنز
سيمنع
سيمون
سيناء
سينتج
سينجح
سينضم
سينظر
سينظم
سينفذ
سينقل
سينما
سيوجه
سيوفر
سيوقع
سيولة
سيينا
شأنها
شأنهم
شائبة
شائعة
شائكة
شابين
شاحنة
شارحا
شاركت
شارلي
شارون
شاسعة
شاشات
شاعرا
شاغرة
شافيز
شاكرا
شالكه
شالوم
شاليط
شاملا
شاملة
شاهدا
شاهدت
شاهده
شاهين
شاوول
شبابه
شباكه
شبكات
شبهات
شبيغل
شبيهة
شتورة
شجاعة
شحاتة
شحاته
شحادة
شحرور
شحنات
شخصان
شخصيا
شخصية
شخصين
شدياق
شديدا
شديدة
شرائح
شرائط
شرائه
شرارة
شراسة
شراكة
شرطيا
شرعيا
شرعية
شرفاء
شرقية
شركاء
شركات
شركتا
شركته
شركتي
شرودر
شروطا
شريان
شريحة
شريعة
شريفة
شريكا
شريكة
شريكه
شظايا
شعائر
شعارا
شعبان
شعبنا
شعبها
شعبيا
شعبية
شعراء
شعرها
شعروا
شعرية
شعلان
شعورا
شعوره
شفائه
شفافة
شفتيه
شفهيا
شفهية
شقراء
شقيقة
شقيقه
شقيقي
شكاوى
شكاوي
شكرهم
شكلها
شكليا
شكلية
شكواه
شكوكا
شلتوت
شلهوب
شلومو
شمالي
شمسية
شمعون
شملهم
شنودة
شهادة
شهداء
شهدته
شهدنا
شهدها
شهرته
شهريا
شهرية
شهرين
شهوان
شهيدا
شهيرة
شوائب
شوارع
شواطئ
شواهد
شوبير
شولتز
شومان
شوهدت
شويري
شيخنا
شيراز
شيراك
شيرين
شيطان
شيعية
شيكات
شيماء
شيمون
شينزو
شيوعا
شيوعي
صابون
صاحبة
صاحبه
صاخبة
صادرة
صادرت
صادفت
صادقا
صادقة
صادقت
صادمة
صارخا
صارخة
صارمة
صاروا
صاروخ
صاغية
صافية
صالات
صالحة
صالون
صامتا
صامتة
صانعي
صباحا
صباحى
صبيحة
صحافة
صحافي
صحتها
صحتهم
صحراء
صحفيا
صحفية
صحوته
صحيحا
صحيحة
صحيفة
صداقة
صدقية
صدمته
صدوره
صديقا
صديقة
صديقه
صديقي
صراحة
صراعا
صرامة
صربيا
صرخات
صرفها
صريحا
صريحة
صعوبة
صعودا
صعوده
صغارا
صغيرا
صغيرة
صفاقس
صفحات
صفحته
صفراء
صفقات
صفوان
صفوفه
صفيحة
صقلية
صلابة
صلوات
صليبا
صليبي
صناعة
صناعي
صندوق
صنعاء
صنعها
صهريج
صوايا
صوتنا
صوتها
صوتية
صورته
صورها
صوفيا
صياغة
صيانة
صيحات
صيغته
صيفية
صينية
ضئيلة
ضائعة
ضابطا
ضاحكا
ضاحية
ضاربا
ضارية
ضاغطة
ضالته
ضبطها
ضبطهم
ضحايا
ضحيته
ضرائب
ضربات
ضربها
ضرورة
ضرورى
ضروري
ضريبة
ضريبي
ضعيفا
ضعيفة
ضغوطا
ضمائر
ضمانا
ضمانة
ضمنها
ضمنهم
ضمنيا
ضميره
ضوئها
ضوئية
ضوابط
ضواحي
طائرة
طائفة
طائفي
طائلة
طابعا
طابقا
طابور
طاحنة
طارئا
طارئة
طازجة
طاعته
طاغية
طاقات
طاقته
طالبا
طالبة
طالبت
طالبي
طاولة
طاولت
طبارة
طباعة
طبعته
طبقات
طبنجة
طبيبا
طبيبة
طبيعى
طبيعي
طربيه
طرحته
طرحنا
طرحها
طرطوس
طرقات
طريفة
طريقة
طريقه
طشقند
طعنات
طغيان
طفلان
طفلها
طفلين
طفولي
طفيفا
طفيفة
طلائع
طلبات
طلبنا
طلبها
طلبوا
طلعات
طلقات
طليعة
طموحة
طموحه
طهران
طوائف
طوابق
طوارئ
طواقم
طوسون
طوفان
طوكيو
طولها
طويلا
طويلة
طياته
طيران
ظالمة
ظاهرة
ظروفه
ظهوره
ظواهر
عائدا
عائشة
عائقا
عائلة
عائلي
عابرة
عاتقه
عاتية
عاجزا
عاجزة
عاجلا
عاجلة
عادات
عادلة
عادوا
عاديا
عادية
عارضا
عارضة
عارضت
عارمة
عاريا
عارية
عازار
عازلة
عاشها
عاشوا
عاشور
عاصفة
عاصمة
عافية
عاقبت
عالجت
عالقة
عالمي
عاليا
عالية
عاليه
عاملا
عاملة
عامين
عاناه
عانيت
عاودت
عايدة
عبادة
عباده
عبادي
عبارة
عبثية
عبدال
عبقري
عبوات
عثروا
عثمان
عجائب
عجلات
عجلان
عجمان
عجيبة
عجينة
عدائي
عدالة
عداوة
عددها
عددهم
عدسات
عدنان
عدوان
عدونا
عديدة
عديمة
عذراء
عرابى
عرابي
عراقي
عربات
عربيا
عربية
عرسال
عرضنا
عرضها
عرضية
عرفات
عرفان
عرفته
عرفنا
عرفها
عرفوا
عرقجي
عرقلة
عرقلت
عرقية
عرمون
عروبة
عروضا
عروضه
عريضة
عريقة
عزازى
عزلته
عزمهم
عزيزة
عزيزي
عزيمة
عزيمت
عساكر
عسكرى
عسكري
عسيري
عشائر
عشرات
عشرون
عشرين
عصابة
عصابى
عصابي
عصبية
عصرنا
عصرية
عصفور
عصيان
عصيبة
عضلات
عضوية
عطائه
عطايا
عظماء
عظيما
عظيمة
عفريت
عفرين
عفوية
عفيفى
عفيفي
عقائد
عقابا
عقارب
عقاري
عقبات
عقباه
عقدته
عقدنا
عقدها
عقدين
عقلاء
عقليا
عقلية
عقوبة
عقودا
عقيدة
عقيقي
عكاشة
عكسية
علاجا
علاجه
علاقة
علامة
علاوة
علاوي
علشان
علماء
علمنا
علمهم
علميا
علمية
علنية
علوان
علوية
علياء
عليكم
علينا
عليها
عليهم
علييف
عمارة
عمالة
عمداء
عمران
عمرها
عمشيت
عملاء
عملات
عملاق
عملنا
عملها
عملهم
عملوا
عمليا
عملية
عمولة
عموما
عمومي
عمياء
عميقا
عميقة
عناصر
عناية
عندئذ
عندما
عندنا
عندها
عندهم
عنصرا
عنصري
عنهما
عنوان
عنيفا
عنيفة
عهدنا
عهدها
عوائد
عوائق
عوائل
عوارض
عواصف
عواصم
عواضة
عواطف
عواقب
عوالم
عوامل
عودته
عودتي
عودنا
عورات
عويضة
عيادة
عيشهم
عينات
عيناه
عينها
عينية
عينيك
عينيه
غائبا
غائبة
غابات
غابوا
غادرت
غارات
غاردن
غاردي
غارقة
غاروس
غازات
غاضبا
غاضبة
غالبا
غاليا
غالية
غامرة
غامضا
غامضة
غاندي
غايات
غايته
غبطته
غذائي
غرائب
غرائز
غرابة
غراما
غرامة
غرامي
غرانت
غراند
غرباء
غربية
غرفته
غرفتي
غريبا
غريبة
غريمه
غرينت
غزارة
غزالة
غزلان
غزيرة
غضبنا
غضبهم
غفران
غفيرة
غليان
غليون
غنائي
غندور
غواصة
غوران
غوردن
غولدن
غوميز
غيابه
غيرنا
غيرها
غيرهم
غينيا
غينيس
فأبلغ
فأجاب
فأخبر
فأراد
فأرسل
فأشار
فأصاب
فأصبح
فأصدر
فأصيب
فأطلق
فأعلن
فأغلب
فأقول
فأكثر
فأنتم
فأوضح
فإنني
فإنها
فإنهم
فئاته
فئران
فئوية
فائدة
فائزا
فائضا
فائقة
فابيو
فاتصل
فاجأت
فاخرة
فادحا
فادحة
فارغة
فارقة
فاروق
فاريا
فازوا
فاسدة
فاشلة
فاصلة
فاضطر
فاطمة
فاعلا
فاعلة
فاعور
فاقوس
فاكهة
فالأم
فالتر
فالخط
فالذي
فالكل
فالله
فانها
فبادر
فبحسب
فبدأت
فتأتي
فتاوى
فتبين
فتحدث
فتحها
فتحول
فتدخل
فترات
فترته
فتصبح
فتقدم
فتقول
فتقوم
فتكون
فتوجه
فتيات
فجاءت
فجروا
فجميع
فجوات
فحاول
فخلال
فدانا
فذهبت
فرئيس
فراشة
فراغا
فرانز
فرانس
فرانك
فرحات
فرحان
فرحته
فردان
فردوس
فردية
فرسان
فرصته
فرضته
فرضها
فرضية
فرعون
فرعية
فرغلى
فرنسا
فرنسى
فرنسي
فرويد
فريال
فريحة
فريدا
فريدة
فريسة
فريضة
فريقا
فريقه
فريقي
فسادا
فسارع
فستان
فسيتم
فشلنا
فشلها
فشلوا
فشيئا
فصائل
فصيلة
فضائح
فضائل
فضائي
فضفاض
فضيحة
فضيلة
فطالب
فظهرت
فعالا
فعالة
فعلته
فعلنا
فعلها
فعلوا
فعلوه
فعليا
فعلية
فعليك
فعلين
فعليه
فغالب
فغالي
فقاعة
فقالت
فقامت
فقدان
فقدنا
فقدوا
فقراء
فقرات
فقررت
فقهاء
فقيرة
فكانت
فكاهي
فكثير
فكرته
فكرنا
فكروا
فكريا
فكرية
فكلما
فلابد
فلديه
فلذات
فلسفة
فلسفي
فلكية
فليست
فليفل
فليكن
فماذا
فمثلا
فمعظم
فمنهم
فنادق
فنانا
فنانة
فناني
فنجان
فنسنت
فنقول
فهمنا
فهمها
فهناك
فوائد
فوارق
فواصل
فوافق
فوجئت
فوجدت
فوجود
فوربس
فورية
فوزها
فوزهم
فوزية
فوستر
فوضوي
فوقها
فولاذ
فولفو
فولكس
فيدال
فيديو
فيردر
فيروز
فيروس
فيصبح
فيضان
فيقول
فيكون
فيلما
فيلمه
فيليب
فيمكن
فينغر
فينوس
فيهما
فييرا
فيينا
قائدا
قائلا
قائلة
قائما
قائمة
قابلا
قابلت
قابوس
قابيل
قاتلة
قاتمة
قادته
قادرا
قادرة
قادما
قادمة
قادها
قارات
قاربت
قاسيا
قاسية
قاصرا
قاصرة
قاضيا
قاضية
قاطبة
قاطعا
قاطعة
قاطعت
قاطني
قاعات
قاعدة
قالوا
قاموس
قانصو
قانون
قاهرة
قاووق
قبائل
قبالة
قباني
قبضته
قبطان
قبلان
قبلنا
قبولا
قبوله
قبيسي
قبيلة
قتادة
قتلهم
قتلوا
قتيلا
قحطان
قداسة
قدامى
قدرات
قدرته
قدرها
قدسية
قدمته
قدمنا
قدمها
قدموا
قدموه
قدميه
قدورة
قدومه
قديما
قديمة
قذائف
قذيفة
قرأنا
قراءة
قرابة
قرارا
قراره
قراهم
قررنا
قرروا
قرصنة
قرضاي
قرطاج
قرطبة
قروضا
قريبا
قريبة
قريته
قريتي
قريطم
قزوين
قسطرة
قسمين
قسيمة
قصائد
قصتها
قصصية
قصيدة
قصيدت
قصيرة
قضائه
قضائى
قضائي
قضايا
قضبان
قضيته
قطرية
قطعنا
قطعها
قطيعة
قفزات
قلائل
قلادة
قلبها
قلبية
قلقها
قلقهم
قلقون
قليلا
قليلة
قليوب
قمامة
قمصان
قنابل
قناته
قناتي
قناصة
قناعة
قناوى
قنبلة
قنديل
قنطار
قنوات
قهوجي
قوائم
قواته
قوارب
قواسم
قواعد
قوافل
قوالب
قوامه
قوتنا
قوتها
قوتهم
قورنت
قوسين
قولها
قولهم
قوميا
قومية
قيادة
قيادي
قياسا
قياسي
قيامه
قيراط
قيمته
قيودا
كأداة
كأساس
كأكثر
كأنما
كأننا
كأنها
كأنهم
كائنا
كابتن
كابوس
كابول
كاتبا
كاتبة
كاحله
كاذبة
كارتر
كارثة
كارثي
كارلا
كارلس
كارلو
كارمن
كارني
كارول
كارين
كازان
كاسبا
كاشفا
كاشفة
كاظمة
كافيا
كافية
كالتي
كالذي
كامبل
كاملا
كاملة
كامنة
كاميل
كانوا
كانون
كايرو
كايزر
كبداي
كبديل
كبريت
كبوته
كبيرا
كبيرة
كتائب
كتابا
كتابة
كتابه
كتابي
كتبته
كتبنا
كتبها
كتبوا
كتفيه
كتلته
كتيبة
كثافة
كثيرا
كثيرة
كثيفا
كثيفة
كحركة
كخيار
كدمات
كدولة
كديما
كرئيس
كراسي
كرامة
كرامي
كراون
كرتون
كردون
كردية
كرزاي
كركوك
كرمان
كروبي
كروكر
كروية
كرويف
كريات
كريدي
كريست
كريمة
كريهة
كزعيم
كسابق
كسارة
كسفير
كسلاح
كشافة
كشركة
كشريك
كشمير
كطريق
كعاصم
كعامل
كعنصر
كغيره
كفاءة
كفالة
كفاية
كفريق
كفنان
كفوري
كقائد
كقاعد
ككاتب
ككيان
كلارك
كلاعب
كلاما
كلامك
كلامه
كلامي
كلاوس
كلثوم
كلفته
كلمات
كلمته
كلمتي
كلوزه
كليات
كمؤسس
كمثال
كمخرج
كمدخل
كمدرب
كمدير
كمرحل
كمرشح
كمصدر
كمعلم
كمقدم
كممثل
كمنتج
كمنطق
كمنظم
كموظف
كميات
كنائب
كنائس
كندية
كنعان
كنيدي
كنيسة
كنيست
كهدية
كواحد
كوادر
كوارث
كواكب
كوبرى
كوبري
كورال
كوريا
كوزار
كوزير
كوستا
كوسيط
كوسيل
كوشنر
كوقود
كولين
كومار
كومان
كونتي
كونها
كونهم
كونوا
كونية
كوهين
كويتي
كوينز
كيبيك
كيران
كيربي
كيرلس
كيروز
كيفية
كينغز
كينيا
كيوتو
كيودو
كييفو
لآثار
لآراء
لآمال
لأبرز
لأحدث
لأحمد
لأخرى
لأخيه
لأداء
لأربع
لأزمة
لأسهم
لأشهر
لأصبح
لأصول
لأغلب
لأفضل
لأقرب
لأقول
لأكبر
لأكثر
لأمور
لأمير
لأمين
لأنني
لأنها
لأنهم
لأيام
لؤلؤة
لإتاح
لائحة
لائقة
لابنه
لاحظت
لاحقا
لاحقة
لاذعة
لاربع
لارسن
لازال
لازمة
لاسال
لاشيء
لاشين
لاعبا
لاعبة
لاعبه
لاعبو
لاعبى
لاعبي
لافتا
لافتة
لاكثر
لامست
لانسر
لاننا
لانها
لانهم
لاهاي
لاهور
لاهيا
لايقل
لباقي
لبحوث
لبقاء
لبلاد
لبلور
لبلوغ
لبناء
لبنات
لبنان
لبنود
لبيان
لبيوت
لتأتي
لتأخذ
لتأخر
لتؤكد
لتبلغ
لتبني
لتتبع
لتتول
لتثبت
لتجار
لتجعل
لتجمع
لتجنب
لتحتل
لتحرك
لتحصل
لتحقق
لتحمل
لتحول
لتخرج
لتخصص
لتخطي
لتدخل
لتذكر
لتزيد
لتستق
لتسجل
لتسلم
لتشكل
لتشمل
لتصبح
لتصرف
لتضاف
لتطال
لتطور
لتظهر
لتعبر
لتعدد
لتعرض
لتعرف
لتعطي
لتعقب
لتعكس
لتعلم
لتعلن
لتعمل
لتعود
لتعيد
لتعيش
لتغطي
لتغير
لتفاد
لتفقد
لتفوق
لتقبل
لتقدم
لتقصي
لتقول
لتقوم
لتكتم
لتكشف
لتكمل
لتكون
لتلبي
لتلقي
لتمثل
لتمضي
لتمكن
لتميز
لتنتق
لتنضم
لتنقل
لتهيئ
لتوجه
لتوقف
لتولي
لتونس
لتيار
لثلاث
لثورة
لجدول
لجلسة
لجمال
لجميع
لجنته
لجنتي
لجنوب
لجنود
لجهاز
لجهود
لجوئه
لجورج
لحادث
لحارس
لحاكم
لحبيب
لحجاج
لحدوث
لحدود
لحديث
لحراس
لحركة
لحرية
لحساب
لحسين
لحصار
لحضور
لحظات
لحقوق
لحكام
لحلول
لحماس
لحوار
لحوال
لحياة
لحيته
لخادم
لخدمة
لخروج
لخطاب
لخلاف
لخيار
لدخول
لدعوة
لدمشق
لدواع
لدورة
لدوره
لدوري
لدولة
لديكم
لدينا
لديها
لديهم
لديهن
لذاته
لرؤية
لرئيس
لراحة
لرجال
لرحيل
لرسوم
لرموز
لرواد
لروما
لزعزع
لزعيم
لزميل
لزواج
لزوار
لسؤال
لسائق
لسانه
لسباق
لسداد
لسرقة
لسعيد
لسقوط
لسكان
لسلاح
لسلطة
لسلوك
لسماع
لسموه
لشؤون
لشئون
لشارع
لشاعر
لشباب
لشبكة
لشراء
لشركة
لشروط
لشعار
لشعبه
لشعوب
لشفيق
لشقيق
لشمال
لصاحب
لصالح
لصانع
لصدام
لصدور
لصديق
لصراع
لصغار
لصفوف
لصلاة
لصلاح
لصناع
لصيقة
لضباط
لضربة
لضغوط
لضمان
لضيوف
لطالب
لطبيب
لطريق
لطلاب
لطلبة
لطيفة
لظروف
لظهور
لعباد
لعباس
لعبته
لعبنا
لعبها
لعبوا
لعبور
لعرضه
لعروض
لعشاق
لعطاء
لعقار
لعقود
لعلاج
لعلوم
لعمال
لعمله
لعموم
لعودة
لغاية
لغتهم
لغرفة
لغوية
لغياب
لغيره
لفئات
لفترة
لفريق
لفنان
لفندق
لفيلم
لقائد
لقائه
لقادة
لقبها
لقبول
لقتال
لقراء
لقرار
لقصور
لقضاء
لقضية
لقطات
لقطاع
لقمان
لقناة
لقوات
لقوله
لقياد
لقياس
لقيام
لكاتب
لكامل
لكانت
لكبار
لكتاب
لكثير
لكلام
لكلمة
لكلية
لكننا
لكنها
لكنهم
لكوكب
لكونه
للآخر
للأبد
للأجر
للأدب
للأرض
للأسد
للأسر
للأسف
للأكل
للألم
للأمة
للأمر
للأمم
للأمن
للأول
للاست
للاسر
للاسف
للاسه
للاطا
للاعب
للاوق
للاول
للبحث
للبحر
للبدء
للبشر
للبعض
للبلد
للبنك
للبني
للبول
للبيت
للبيع
للتصد
للتلف
للتنس
للتوص
للثأر
للثقة
للجان
للجدل
للجسم
للجنة
للجنس
للجوء
للجول
للجيش
للجيل
للحاج
للحاق
للحدث
للحرا
للحرب
للحرس
للحرف
للحرم
للحزب
للحظة
للحفل
للحكم
للحلف
للحلق
للحوم
للخبر
للخطأ
للخطة
للخطر
للخلف
للخوف
للخير
للدخل
للدرج
للدعم
للدفع
للدور
للدول
للدين
للذات
للذهب
للرأى
للرأي
للربح
للربط
للربع
للرجل
للرسم
للرقص
للرقي
للروم
للزمن
للزوج
للساد
للسبب
للسجن
للسفر
للسفن
للسكر
للسكن
للسلع
للسلم
للسنة
للسهم
للسوق
للسيد
للسير
للشأن
للشاب
للشبا
للشحن
للشخص
للشرب
للشرق
للشعب
للشعر
للشمس
للشهر
للشيخ
للصحة
للصحف
للصرف
للصلب
للصوت
للصور
للصيد
للصين
للضرب
للضغط
للضوء
للطبق
للطرد
للطرف
للطرق
للطعن
للطفل
للطلب
للظلم
للعام
للعبة
للعدل
للعدو
للعرب
للعرض
للعصر
للعقد
للعقل
للعلم
للعمل
للعنف
للعهد
للعيد
للعيش
للعين
للغات
للغاز
للغرب
للغرض
للغرف
للغزل
للغزو
للغير
للفحص
للفرد
للفرص
للفرع
للفرق
للفصل
للفقر
للفقي
للفكر
للفوز
للقاء
للقبض
للقتل
للقدس
للقرن
للقرى
للقسم
للقصر
للقصف
للقفز
للقلب
للقلق
للقمة
للقمح
للقمر
للقنو
للقوة
للقول
للقوى
للقيم
للكتب
للكرة
للكشف
للماء
للمال
للمتر
للمجن
للمحل
للمدن
للمرء
للمرة
للمرض
للمضي
للمعد
للمقر
للملف
للملك
للمهن
للموت
للناس
للنبي
للنجم
للنشر
للنصر
للنصف
للنظر
للنفس
للنفط
للنقد
للنقل
للنمو
للنور
للنوم
للهدف
للهرب
للهند
للواء
للوجه
للوحد
للوسط
للوضع
للوطن
للوعي
للوفد
للوقت
للوقف
للوقو
لليمن
لليوم
لمؤسس
لمؤشر
لمادة
لماذا
لمالك
لمبدأ
لمجرد
لمجلس
لمجمع
لمجمل
لمحبي
لمحطة
لمحمد
لمخرج
لمخطط
لمدرب
لمدير
لمرسى
لمرشح
لمرضى
لمركز
لمرور
لمريض
لمزيد
لمسات
لمسار
لمسجد
لمسرح
لمسنا
لمصدر
لمصرف
لمصنع
لمطار
لمطلب
لمعان
لمعرض
لمعظم
لمعهد
لمقام
لمقتل
لمكان
لمكتب
لملاك
لممثل
لمنتج
لمنزل
لمنصب
لمنطق
لمهام
لمواد
لموسم
لموظف
لموقع
لموقف
لمياه
لنائب
لنادي
لنجاح
لنجوم
لنداء
لنساء
لنسبة
لنشاط
لنصوص
لنضال
لنظام
لنعرف
لنفسك
لنفسه
لنفسي
لنفوذ
لنقول
لنكون
لنهضة
لنواب
لهجته
لهجوم
لهذين
لهيكل
لوائح
لواجب
لواحد
لوازم
لواقع
لوالد
لوبان
لوبيز
لوجود
لوحات
لوحته
لوحده
لوران
لورنس
لورين
لوزان
لوزير
لوصول
لوطنه
لوقوع
لوكاس
لوكيل
لونها
لوهان
ليأتي
ليأخذ
ليؤكد
لياقة
ليالي
ليبان
ليبدأ
ليبلغ
ليبيا
ليبية
ليتسن
ليتوج
ليثبت
ليجعل
ليحتل
ليحصل
ليحقق
ليخرج
ليدخل
ليرات
ليرفع
ليزيد
ليستر
ليسجل
ليسدد
ليشكل
ليشمل
ليصار
ليصبح
ليصعد
ليضمن
ليضيف
ليطلب
ليظهر
ليعبر
ليعرض
ليعرف
ليعطي
ليعلم
ليعلن
ليعمل
ليعود
ليعيد
ليعيش
ليغلق
ليفنى
ليفني
ليفوز
ليقدم
ليقفل
ليقود
ليقول
ليقوم
ليكشف
ليكمل
ليكون
ليلعب
ليلية
ليمان
ليمتد
ليمثل
ليمنح
ليمون
ليندا
ليندس
لينضم
لينقل
لينكس
لينهي
لينين
ليوني
مأجور
مأخوذ
مأذون
مأساة
مأسوي
مألوف
مأمور
مأمون
مؤتمر
مؤتمن
مؤثرا
مؤثرة
مؤجلة
مؤخرا
مؤسسة
مؤسسى
مؤسسي
مؤسفة
مؤشرا
مؤقتا
مؤقتة
مؤكدا
مؤكدة
مؤلمة
مؤمنا
مؤمنة
مؤهلا
مؤهلة
مؤيدا
مؤيدو
مؤيدي
مئوية
مائتي
مائية
مائير
مابين
ماتوا
ماتيا
ماتيس
ماتيو
ماثلة
ماثيو
ماجدة
ماجيك
ماحدث
مادام
مادته
مادتي
ماديا
مادية
مارتن
مارست
ماركا
ماركة
ماركت
ماركس
ماركو
مارون
ماريا
مارين
ماريو
مازال
مازدا
مازلت
ماستر
ماشية
ماضية
ماعدا
مافيا
ماكين
مالطا
مالكي
مالها
ماليا
مالية
مايكل
مباحث
مبادئ
مبادر
مبادل
مبارا
مبارك
مباشر
مباغت
مبالغ
مباني
مبايع
مبتدئ
مبتسم
مبتعد
مبتكر
مبدئي
مبررا
مبررة
مبرمج
مبروك
مبسطة
مبعوث
مبكرا
مبكرة
مبلغا
مبنيا
مبنية
مبيعا
مبينا
مبينة
متأثر
متأخر
متأكد
متألق
متأمل
متابع
متاجر
متاحا
متاحة
متاحف
متاعب
متانة
متاهة
متبرع
متبوع
متتال
متجدد
متجها
متجهة
متجول
متحدث
متحرر
متحرك
متحضر
متحفظ
متحمس
متخرج
متخصص
متخطي
متخلف
متخوف
متخيل
متدرب
متدرج
متدين
متذرع
متذيل
مترات
مترجم
متردد
مترشح
متروك
مترين
متزوج
متساو
متسبب
متسرع
متسلح
متسلل
متسول
متشدد
متصدر
متصفح
متصلة
متضرر
متطرف
متطلع
متطور
متطوع
متعثر
متعدد
متعذر
متعصب
متعطش
متعلق
متعلم
متعمد
متعهد
متغير
متفرج
متفرد
متفرغ
متفرق
متفهم
متفوق
متقدم
متقطع
متقلب
متقنة
متكرر
متلبس
متلفز
متلقي
متمثل
متمرد
متمرس
متمسك
متمكن
متمني
متميز
متنزه
متنقل
متنكر
متنها
متنوع
متهما
متهمة
متهور
متواز
متوتر
متوجه
متوحش
متورط
متوسط
متوفر
متوفى
متوفي
متوقع
متوقف
متولى
متولي
متينة
مثالا
مثالي
مثبتة
مثلما
مثلنا
مثلها
مثلوا
مثمرة
مثواه
مثيرا
مثيرة
مجارا
مجاري
مجازر
مجاعة
مجالا
مجالس
مجانا
مجاني
مجاهد
مجاور
مجتمع
مجتهد
مجددا
مجدية
مجذوب
مجراه
مجروح
مجزرة
مجزية
مجلات
مجمدة
مجموع
مجنون
مجهزة
مجهود
مجهول
مجيئه
محارب
محاسب
محاسن
محاصر
محاضر
محافظ
محافل
محاكم
محالة
محامو
محامي
محاور
محاول
محايد
محبته
محبسه
محبوب
محبوس
محبيه
محتاج
محتجز
محتدم
محترف
محترم
محتشم
محتفظ
محتلة
محتمل
محتوى
محجبة
محجوب
محجوز
محددا
محددة
محدود
محذرا
محذرة
محراب
محرقة
محرمة
محروس
محروم
محسوب
محسود
محسوم
محصلة
محصنة
محصور
محصول
محضرا
محطات
محطته
محطتي
محظور
محظوظ
محفور
محفوض
محفوظ
محفوف
محققا
محققة
محكمة
محكوم
محلات
محلها
محلول
محليا
محلية
محملا
محملة
محمود
محمول
محموم
محمية
محنته
محورا
محيطه
مخارج
مخازن
مخاطر
مخالب
مخالف
مخاوف
مخايل
مخبأة
مختار
مختبئ
مختبر
مختتم
مخترع
مخترق
مختصة
مختصر
مختطف
مختلط
مختلف
مخدرة
مخدوم
مخرجا
مخزون
مخصصا
مخضرم
مخططا
مخطوط
مخطوف
مخفضة
مخفية
مخلصا
مخلوف
مخلوق
مخمور
مخيبة
مخيبر
مخيفة
مخيلة
مخيون
مداخل
مدارس
مدافع
مدافن
مداها
مدبول
مدتها
مدخلا
مدخول
مدربا
مدربه
مدربي
مدرجة
مدرسا
مدرسة
مدرسي
مدرعة
مدروس
مدريد
مدعاة
مدعمة
مدعوم
مدعيا
مدفعي
مدفوع
مدفون
مدلول
مدمجة
مدمرة
مدننا
مدنيا
مدنية
مدهشة
مدونة
مدويا
مدوية
مديري
مدينة
مذابح
مذاهب
مذبحة
مذعور
مذكرا
مذكرة
مذكور
مذهبي
مذهلة
مذيعة
مرئية
مرابط
مراتب
مراجع
مراحل
مرادف
مرارا
مرارة
مراسل
مراسم
مرافئ
مرافق
مراقب
مراكب
مراكز
مراكش
مراهق
مرايا
مربحة
مربعا
مربعة
مربوط
مرتاح
مرتبة
مرتبط
مرتبك
مرتجى
مرتدة
مرتدي
مرتضى
مرتفع
مرتقب
مرتكب
مرتكز
مرتين
مرجان
مرجحا
مرجعا
مرحبا
مرحلة
مرخصة
مردخا
مردوخ
مردود
مرزوق
مرسوم
مرشحا
مرشحو
مرشحي
مرضية
مرعبة
مرغوب
مرفقا
مرفقة
مرفوض
مرفوع
مركبة
مركزا
مركزه
مركزي
مرماه
مرمرة
مرموق
مرهون
مروان
مروحة
مرورا
مروري
مروعة
مرونة
مريحة
مريرة
مريضا
مريضة
مزارع
مزاعم
مزاول
مزايا
مزدحم
مزدهر
مزدوج
مزرعة
مزروع
مزعجة
مزعوم
مزمنة
مزورة
مزيفة
مسألة
مسؤول
مسئول
مسائل
مساجد
مساحة
مساحي
مسارح
مساره
مساعد
مساعي
مسافة
مسافر
مساكن
مسالة
مسالم
مسامع
مساند
مساهم
مساوئ
مساير
مسببة
مسبقا
مسبقة
مسبوق
مستاء
مستبد
مستتر
مستجد
مستحب
مستحق
مستعد
مستغل
مستفز
مستقر
مستقل
مستمد
مستمر
مستمع
مستند
مستهل
مستوح
مستور
مستوى
مستوي
مسجدا
مسجلا
مسجلة
مسجون
مسحوق
مسدود
مسرحا
مسرحي
مسرعا
مسرعة
مسرور
مسروق
مسعاه
مسعود
مسكنا
مسكنه
مسكون
مسكين
مسلحا
مسلحة
مسلحو
مسلحي
مسلسل
مسلما
مسلمة
مسلمي
مسمار
مسموح
مسموع
مسموم
مسودة
مسيئة
مسيحى
مسيحي
مسيرة
مسيطر
مشابه
مشادة
مشارب
مشارف
مشارق
مشارك
مشاري
مشاعر
مشاعل
مشاغب
مشاغل
مشاكل
مشاهد
مشايخ
مشبوه
مشتاق
مشتبه
مشترط
مشترك
مشجعا
مشجعة
مشجعي
مشحون
مشددا
مشددة
مشدود
مشرفا
مشرفة
مشرقة
مشروب
مشروط
مشروع
مشغول
مشكلة
مشكور
مشكوك
مشلول
مشمول
مشنتف
مشهدا
مشهود
مشهور
مشوار
مشوهة
مشيخة
مشيرا
مشيرة
مصائب
مصائر
مصابا
مصابة
مصاحب
مصادر
مصارع
مصارف
مصاعب
مصالح
مصانع
مصباح
مصحوب
مصداق
مصدرا
مصدقة
مصدوم
مصرعه
مصرفي
مصروف
مصريا
مصرية
مصطحب
مصطفى
مصطفي
مصطلح
مصطنع
مصغرة
مصفاة
مصفحة
مصلحة
مصممة
مصنعا
مصنوع
مصورا
مصورة
مصيبة
مصيره
مضاجع
مضادة
مضارب
مضاعف
مضافا
مضافة
مضبوط
مضحكة
مضروب
مضطرا
مضطرب
مضغوط
مضللة
مضمار
مضمون
مضنية
مضيئة
مضيعة
مضيفا
مضيفة
مضيفه
مطابق
مطاعم
مطالب
مطالع
مطاوع
مطبعة
مطبوع
مطران
مطربة
مطرقة
مطروح
مطلبا
مطلعة
مطلقا
مطلقة
مطلوب
مطمئن
مطولا
مطولة
مظاهر
مظلته
مظلمة
مظلوم
معابد
معابر
معادن
معارض
معارف
معارك
معاصر
معافى
معاقل
معاكس
معالج
معالم
معالي
معامل
معاني
معاهد
معاود
معاون
معبرا
معبرة
معتاد
معتبر
معتدل
معترض
معترف
معترك
معتصم
معتقد
معتقل
معتمد
معتمر
معتوق
معجزة
معدات
معدوم
معرضا
معرضة
معرفة
معرفي
معركة
معروض
معروف
معززة
معزول
معزيا
معسكر
معصوم
معضلة
معطلة
معقدة
معقول
معلقا
معلقة
معلما
معلمة
معلمي
معلنا
معلنة
معلوف
معلول
معلوم
معمقة
معمول
معناه
معنوي
معنية
معهما
معيار
معيشة
معينا
معينة
مغادر
مغارة
مغامر
مغاير
مغترب
مغتصب
مغربي
مغرضة
مغريا
مغرية
مغلقا
مغلقة
مغلوب
مغمور
مغنية
مغيزل
مفاجئ
مفاده
مفارق
مفاصل
مفاعل
مفاوض
مفبرك
مفتاح
مفترض
مفترق
مفتشي
مفتعل
مفتوح
مفتون
مفخخة
مفردة
مفرطة
مفرغة
مفروض
مفروم
مفصلا
مفصلة
مفصول
مفضلة
مفضوح
مفعول
مفقود
مفهوم
مفيدا
مفيدة
مقابر
مقابل
مقاتل
مقارع
مقاصد
مقاطع
مقاعد
مقالا
مقالة
مقاله
مقاهي
مقاول
مقاوم
مقبرة
مقبلة
مقبول
مقتبس
مقتبل
مقتدى
مقترح
مقترن
مقتصر
مقتضب
مقتله
مقتنع
مقتول
مقداد
مقدار
مقدرا
مقدرة
مقدسة
مقدسي
مقدما
مقدمة
مقدمي
مقدور
مقرات
مقربة
مقررا
مقررة
مقرها
مقروء
مقرون
مقسمة
مقصود
مقطوع
مقعدا
مقعده
مقفلة
مقلدة
مقلقة
مقلوب
مقنعا
مقنعة
مقياس
مقيدة
مقيمة
مكاتب
مكارم
مكاري
مكاسب
مكافئ
مكامن
مكانا
مكانة
مكانه
مكاوى
مكاوي
مكبرة
مكتبة
مكتبه
مكتتب
مكتسب
مكتشف
مكتظة
مكتمل
مكتوب
مكتوف
مكتوم
مكثفا
مكثفة
مكررا
مكررة
مكروه
مكسبا
مكسور
مكسيم
مكشوف
مكفول
مكلفا
مكلفة
مكملا
مكملة
مكنته
ملائم
ملابس
ملاجئ
ملاحظ
ملاحق
ملاذا
ملازم
ملاصق
ملاعب
ملاكى
ملامح
ملامس
ملتبس
ملتزم
ملتصق
ملحمة
ملحوظ
ملزما
ملزمة
ملعبه
ملفات
ملفقة
ملفوف
ملقاة
ملكية
ملمحا
ملموس
ملوثة
ملونة
مليار
مليون
مماثل
ممارس
ممتاز
ممتدة
ممتعة
ممتلئ
ممثلا
ممثلة
ممثلو
ممثلي
ممدوح
ممرات
ممرضة
ممزوج
ممفيس
ممكنا
ممكنة
مملكة
مملوء
مملوك
ممنهج
ممنوع
مميزا
مميزة
منابر
منابع
مناجم
مناحي
منارة
منازع
منازل
مناسب
مناسك
مناصب
مناصر
مناضل
مناطق
مناظر
مناعة
منافذ
منافس
منافع
مناقض
مناهج
مناهض
مناوئ
منبوذ
منتجا
منتجة
منتجع
منتجي
منتخب
منتدى
منتزه
منتسب
منتشر
منتصر
منتصف
منتظر
منتظم
منحته
منحدر
منحها
منحهم
منخرط
منخفض
منددة
مندوب
منزلا
منزله
منزلي
منسجم
منسقة
منسوب
منشآت
منشأة
منشغل
منشور
منصات
منصبا
منصبه
منصور
منطقة
منطقي
منطلق
منظار
منظمة
منظمو
منظمي
منظور
منعها
منعهم
منفتح
منفذي
منفرد
منفصل
منفعة
منقطع
منهجا
منهجي
منهما
منوعة
منوها
منيرة
منيعا
مهاجر
مهاجم
مهارة
مهامه
مهتما
مهجور
مهددا
مهددة
مهران
مهزلة
مهزوم
مهمات
مهمته
مهمتي
مهمشة
مهملة
مهموم
مهمين
مهنئا
مهنته
مهندس
مهنيا
مهنية
مهووس
مهيمن
مهينة
موائد
مواجه
موارد
مواسم
مواضع
مواطن
موافا
موافق
موافى
مواقع
مواقف
مواكب
موالي
موانئ
موانع
مواهب
موبيل
موتور
موثقة
موثوق
موجاب
موجات
موجعة
موجها
موجهة
موجود
موحدا
موحدة
مودرن
موديز
موديل
موران
موراي
موروث
موريس
موزعة
موسعا
موسعة
موسكو
موسما
موسمه
موسوي
موشيه
موصوف
موصول
موضحا
موضحة
موضوع
موظفا
موظفة
موظفو
موظفي
موعدا
موعده
موعود
موفاز
موفقا
موفقة
موقتا
موقعا
موقعة
موقعه
موقفا
موقفه
موقوف
موكله
موكلي
مولاي
مولود
مونتي
موندو
مونرو
موهبة
موهوب
ميامي
ميتال
ميترو
ميتسو
ميتشل
ميثاق
ميدان
ميدوز
ميديا
ميراث
ميرتس
ميرزا
ميرفت
ميركل
ميرنا
ميرور
ميريت
ميريل
ميزات
ميزان
ميزور
ميساء
ميسان
ميسرة
ميسور
ميسون
ميشال
ميشيل
ميعاد
ميكرو
ميلاد
ميلان
ميلود
ميليس
ميمون
ميناء
مينسك
ميهوب
ميونخ
نائبا
نائبة
نائبه
نائلة
نائمة
نائية
نابلس
نابية
ناجحا
ناجحة
ناجعة
ناحية
ناخبا
نادال
نادرا
نادرة
نادية
ناديه
نارية
ناسفة
ناشئة
ناشدت
ناشطا
ناشطة
ناصيف
ناضجة
ناطقة
ناعمة
ناغتس
نافذا
نافذة
نافعة
نافيا
ناقشت
ناقصة
ناقوس
نانسي
ناهيك
نبراس
نبضات
نبيلة
نبينا
نتأمل
نتائج
نتابع
نتحدث
نتحرك
نتحمل
نتخيل
نتدخل
نتذكر
نتصور
نتطلع
نتعلم
نتفهم
نتقدم
نتكلم
نتمنى
نتناز
نتوقع
نتوقف
نتيجة
نجاحا
نجاحه
نجحنا
نجحوا
نجدها
نجران
نجلاء
نجومه
نحارب
نحاول
نحتاج
نحترم
نحتفل
نخبوي
نختار
نختلف
ندوات
ندوته
نراقب
نراها
نريده
نزاهة
نزلاء
نزلوا
نزولا
نزوله
نزيهة
نسائه
نسائي
نساعد
نسبته
نسبيا
نسبية
نستحق
نستطع
نستعد
نستغل
نستمر
نسخته
نسرين
نسميه
نسيان
نسينا
نشأته
نشارك
نشاطا
نشاطه
نشاهد
نشتري
نشرات
نشرته
نشرنا
نشرها
نشطاء
نشهده
نصائح
نصفهم
نصيبه
نصيحة
نطاقا
نطالب
نطمئن
نظارة
نظافة
نظامه
نظرته
نظرنا
نظرها
نظرهم
نظريا
نظرية
نظمته
نظمها
نظيره
نظيفة
نعارض
نعالج
نعاني
نعتبر
نعترف
نعتقد
نعتمد
نعرفه
نعمان
نعومة
نعيشه
نعيمة
نفترض
نفتقد
نفذته
نفذها
نفسها
نفسيا
نفسية
نفطية
نفعله
نفقات
نفقته
نفوذه
نفيدك
نفيسة
نقابة
نقابي
نقاتل
نقاشا
نقترح
نقدية
نقصان
نقلته
نقلنا
نقلها
نقلهم
نقولا
نكتشف
نكران
نلاحظ
نلتزم
نلتقي
نماذج
نمارس
نمتلك
نمطية
نموذج
نموها
نناشد
نناقش
ننتبه
ننتظر
ننتهي
نهائى
نهائي
نهارا
نهاية
نهيان
نواجه
نواحي
نوادي
نواصل
نوافذ
نوافق
نواقص
نوايا
نوبات
نوعان
نوعها
نوعيا
نوعية
نوعين
نوفاك
نوقشت
نوكيا
نولان
نوويا
نووية
نويبع
نيابة
نيابي
نيبال
نيتشه
نيتها
نيتهم
نيران
نيسان
نيشان
نيفين
نيكول
نيللي
نيمار
نينوى
نيوتن
هآرتس
هؤلاء
هائلا
هائلة
هاتفه
هاتفى
هاتفي
هاجسا
هاجمت
هاجمو
هادئا
هادئة
هادفة
هاربا
هاربر
هارتس
هارفي
هارون
هاريس
هاشتا
هاشمي
هامدة
هانوي
هاواي
هاورد
هاوية
هايبر
هايتي
هاينز
هبوطا
هجرته
هجروا
هجرية
هجمات
هجوما
هجومه
هدافي
هدايا
هدفنا
هدفها
هدفهم
هدفين
هدوءا
هربوا
هرموش
هرمون
هروبه
هريرة
هزائم
هزازي
هزلية
هزيلة
هزيمة
هشاشة
هكتار
هلمند
همجية
هنالك
هندسة
هندسي
هندية
هنيدي
هواتف
هواجس
هوادة
هوارد
هوامش
هواية
هوندا
هويات
هويته
هيئات
هيئته
هياكل
هيبته
هيثرو
هيرمس
هيفاء
هيكلة
هيلار
هيلين
هيمنة
هيمنت
هينان
وآثار
وآداب
وآراء
وآسيا
وآفاق
وآلات
وآلاف
وآلام
وآلية
وآمال
وآمنة
وأؤكد
وأبان
وأبدا
وأبدت
وأبدي
وأبرز
وأبعد
وأبلغ
وأثار
وأثبت
وأثره
وأجاب
وأجبر
وأجرت
وأجمع
وأجمل
وأجور
وأحال
وأحدث
وأحرز
وأحرق
وأحسن
وأحضر
وأحمد
وأحيل
وأخبر
وأخذت
وأخذو
وأخرج
وأخرى
وأخطر
وأخيه
وأداء
وأدار
وأدان
وأدخل
وأدرك
وأدعو
وأديب
وأذكر
وأراد
وأربع
وأرجع
وأرجو
وأردف
وأرسل
وأرشد
وأرفق
وأريد
وأسأل
وأساس
وأسرة
وأسرع
وأسعد
وأسفر
وأسقط
وأسند
وأسهم
وأشاد
وأشار
وأشرف
وأشعر
وأشعل
وأشكر
وأشمل
وأشهر
وأصاب
وأصبح
وأصدر
وأصدق
وأصول
وأصيب
وأضاع
وأضاف
وأضيف
وأطلع
وأطلق
وأطيب
وأظهر
وأعاد
وأعجب
وأعدت
وأعرب
وأعرف
وأعطت
وأعظم
وأعقب
وأعلم
وأعلن
وأعلى
وأعمق
وأعيد
وأغلب
وأغلق
وأفاد
وأفرج
وأفضل
وأقام
وأقدم
وأقرب
وأقرت
وأقصد
وأقفل
وأقنع
وأقول
وأقوى
وأقيم
وأكبر
وأكثر
وأكدت
وأكرر
وأكرم
وأكمل
وألحق
وألقت
وألمح
وأمام
وأمان
وأمته
وأمرت
وأمنه
وأمور
وأمير
وأمين
وأنتم
وأنجب
وأنجز
وأنزل
وأنشأ
وأنقذ
وأنكر
وأنها
وأنهم
وأهاب
وأهدر
وأهله
وأوجه
وأودع
وأورد
وأوسع
وأوصت
وأوضح
وأوقف
وأيام
وأيدت
وأيضا
وإحنا
وإدلب
وإزاء
وإنما
وإنها
وإياك
وإياه
وإيلي
وابرز
وابعد
وابلغ
وابنه
واتبع
واتجه
واتخذ
واترك
واتصل
واتضح
واتفق
واتمن
واتهم
واثار
واثبت
واثقا
واثقة
واجبا
واجبه
واجعل
واجهة
واجهت
واجهو
واحال
واحتج
واحتل
واحتو
واحدا
واحدة
واحرز
واحمد
واحيل
واخرج
واخرى
وادخل
وادرك
وادعى
واذكر
واراد
واربع
وارتد
وارتق
وارجع
واردة
واردف
وارسل
وارسو
وارنر
واسأل
واسام
واسطة
واسعا
واسعة
واسفر
واسمه
واشاد
واشار
واشتد
واشتر
واشتك
واشرف
واصاب
واصبح
واصدر
واصطف
واصفا
واصلت
واصيب
واضاف
واضحا
واضحة
واضطر
واضعا
واطلع
واطلق
واظهر
واعاد
واعتد
واعتز
واعتل
واعدا
واعدة
واعرب
واعلم
واعلن
واعيا
واعية
واغلب
واغلق
وافاد
وافته
وافضل
وافقت
وافيا
وافية
واقام
واقعا
واقعة
واقعي
واقفا
واقول
واقية
واقيم
واكبت
واكبر
واكتف
واكثر
واكدت
واكمل
واكيم
والآن
والأب
والأخ
والأس
والأم
والأن
والأو
والإن
والاب
والاح
والاخ
والاس
والاف
والام
والان
والبا
والبر
والبط
والبل
والبن
والبو
والبي
والتب
والتح
والتر
والتف
والتن
والتو
والتى
والتي
والجب
والجد
والجر
والجل
والجن
والجه
والجو
والحب
والحج
والحد
والحر
والحس
والحص
والحق
والحل
والحم
والحي
والخط
والخف
والخل
والدة
والدر
والدم
والده
والدي
والذم
والذى
والذي
والرد
والرى
والري
والسب
والسد
والسر
والسل
والسم
والسن
والشد
والشر
والشف
والشك
والشو
والصف
والطب
والعز
والعم
والغد
والغش
والفر
والفل
والفن
والقب
والقر
والقط
والقى
والكا
والكر
والكف
والكل
والكن
والكو
والكي
واللا
والله
واللو
واللي
والمؤ
والمت
والمج
والمح
والمخ
والمد
والمر
والمز
والمس
والمش
والمض
والمع
والمف
والمق
والمل
والمن
والمو
والنا
والنص
والنه
والنو
والني
والهو
والوا
والود
واليد
وامام
وامتد
وامين
وانتم
وانضم
وانقذ
وانما
وانها
وانهم
واهتم
واهدر
واهله
واهية
واوضح
واوقف
وايضا
وايلي
وبأقل
وبأنه
وبإذن
وبائع
وباحث
وبادر
وبارك
وباست
وباسل
وباسم
وباشر
وباقي
وبالم
وبحسب
وبحكم
وبحوث
وبحيث
وبدأت
وبدأو
وبدرج
وبدعم
وبدلا
وبدون
وبرأي
وبررت
وبركة
وبروز
وبسام
وبسبب
وبسعر
وبسيط
وبشأن
وبشار
وبشدة
وبشكل
وبشير
وبصوت
وبصور
وبطول
وبعده
وبعرض
وبعيد
وبغير
وبفضل
وبفعل
وبقاء
وبقدر
وبقوة
وبقيت
وبكين
وبلاد
وبلال
وبلدة
وبلغت
وبلوغ
وبناء
وبنات
وبندر
وبنظر
وبنفس
وبنود
وبنوك
وبنيت
وبهاء
وبهدف
وبيار
وبيان
وبينت
وبيوت
وتأتي
وتأثر
وتأخذ
وتأخر
وتأكد
وتألق
وتأمل
وتأهل
وتؤثر
وتؤدي
وتؤكد
وتؤمن
وتؤيد
وتابع
وتارة
وتامر
وتباع
وتبحث
وتبدأ
وتبدو
وتبذل
وتبرز
وتبرع
وتبعا
وتبعد
وتبعه
وتبلغ
وتبنت
وتبني
وتبيع
وتبين
وتتبع
وتتجه
وتتخذ
وتترك
وتتعد
وتتفق
وتتهم
وتتيح
وتثير
وتجار
وتجاه
وتجدد
وتجري
وتجسد
وتجعل
وتجمع
وتجنب
وتجول
وتحتل
وتحدث
وتحدد
وتحدي
وتحذر
وتحرر
وتحرص
وتحرك
وتحسب
وتحسن
وتحصل
وتحفظ
وتحقق
وتحكم
وتحمل
وتحمي
وتحول
وتحوي
وتحيط
وتختص
وتخدم
وتخرج
وتخشى
وتخصص
وتخضع
وتخطط
وتخلف
وتخلق
وتخلل
وتخلي
وتخوض
وتخوف
وتدخل
وتدرج
وتدرس
وتدرك
وتدعم
وتدعو
وتدفع
وتدفق
وتدمر
وتدني
وتدور
وتدير
وتذكر
وتذهب
وترأس
وتراث
وتربط
وترجع
وترجم
وتردد
وترسل
وترسم
وترصد
وترغب
وترفض
وترفع
وتركت
وتركز
وتركو
وتروي
وتريد
وتزوج
وتزيد
وتسأل
وتسبب
وتسجل
وتسعة
وتسقط
وتسلط
وتسلم
وتسمح
وتسمع
وتسمي
وتسهم
وتسير
وتشاد
وتشتم
وتشجع
وتشدد
وتشرح
وتشرف
وتشعر
وتشغل
وتشكل
وتشمل
وتشهد
وتشوه
وتشير
وتصبح
وتصدر
وتصرف
وتصفي
وتصنع
وتصنف
وتصور
وتصيب
وتضرب
وتضرر
وتضمن
وتضيف
وتطبق
وتطرح
وتطرق
وتطلب
وتطلع
وتطلق
وتطور
وتظهر
وتعال
وتعبر
وتعثر
وتعدد
وتعذر
وتعرض
وتعرف
وتعزز
وتعطل
وتعطي
وتعقد
وتعكس
وتعلق
وتعلم
وتعلن
وتعمد
وتعمل
وتعني
وتعهد
وتعود
وتعيد
وتعيش
وتغذي
وتغطي
وتغلب
وتغلق
وتغيب
وتغير
وتفان
وتفتح
وتفرض
وتفرغ
وتفقد
وتفهم
وتفوق
وتفيد
وتقام
وتقبل
وتقتل
وتقدر
وتقدم
وتقرر
وتقضي
وتقطع
وتقلص
وتقلل
وتقني
وتقود
وتقول
وتقوم
وتقوي
وتقيم
وتكبر
وتكثف
وتكرر
وتكشف
وتكفل
وتكلم
وتكمل
وتكمن
وتكون
وتلاه
وتلبي
وتلعب
وتلفت
وتلقت
وتلقي
وتلمس
وتلوث
وتمتد
وتمثل
وتمسك
وتمضي
وتمكن
وتملك
وتمنت
وتمنح
وتمنع
وتميز
وتناس
وتنتج
وتنشر
وتنشط
وتنظر
وتنظم
وتنفذ
وتنفي
وتنقل
وتنمو
وتنوع
وتنوي
وتهتم
وتهدد
وتهدف
وتوتر
وتوجه
وتوحد
وتوزع
وتوسع
وتوصل
وتوصي
وتوضح
وتوعد
وتوفر
وتوفي
وتوقع
وتوقف
وتولت
وتولي
وتونس
وتيار
وتيرة
وثائق
وثابت
وثالث
وثاني
وثبات
وثلاث
وثمان
وثورة
وثيقا
وثيقة
وجاءت
وجاسم
وجامع
وجاهز
وجبات
وجبال
وجبيل
وجدار
وجدان
وجدته
وجددت
وجدنا
وجدوا
وجدول
وجدوه
وجدية
وجديد
وجدير
وجذاب
وجراح
وجرحى
وجروح
وجريح
وجعلت
وجعله
وجلال
وجمال
وجمعت
وجميع
وجميل
وجناح
وجندي
وجنوب
وجنود
وجهات
وجهاد
وجهاز
وجهته
وجهنا
وجهها
وجهود
وجوده
وجورج
وجوزف
وجولي
وجوهر
وجيزة
وجيشه
وجيمس
وحاجة
وحارس
وحازم
وحاسم
وحاصر
وحاصل
وحاضر
وحافز
وحافظ
وحاكم
وحامل
وحاول
وحبيب
وحثهم
وحدات
وحدته
وحدثت
وحددت
وحدنا
وحدها
وحدهم
وحدوث
وحدود
وحديث
وحذرت
وحراس
وحرصه
وحركة
وحرمه
وحروب
وحرية
وحريص
وحساب
وحساس
وحسام
وحسين
وحشية
وحصار
وحصلت
وحضرت
وحضره
وحضور
وحفيد
وحققت
وحقوق
وحقول
وحكام
وحكمة
وحكمت
وحلول
وحليف
وحماة
وحماس
وحمام
وحملت
وحملو
وحميد
وحنان
وحنين
وحوار
وحياة
وحياد
وحيدا
وحيدة
وحيوي
وخاتم
وخارج
وخاصة
وخاطب
وخالد
وخالي
وخامس
وخبرة
وخبير
وختام
وختمت
وخداع
وخرجت
وخروج
وخسرت
وخصصت
وخصوم
وخطاب
وخطوة
وخطوط
وخطيب
وخطير
وخلاص
وخلال
وخلصت
وخليج
وخميس
وخيال
وخيمة
ودائع
ودائم
وداخل
ودارت
وداعا
وداعم
ودافع
ودانت
وداني
ودخلت
ودخول
ودرعا
ودعمه
ودعوا
ودفاع
ودفعت
ودقيق
ودلال
ودليل
ودماء
ودمار
ودمرت
ودمشق
ودموع
ودنيا
ودوام
ودوره
ودوري
ودولة
ودولي
وديان
وذراع
وذكرت
وذهاب
وذهبت
وذويه
ورأيت
ورؤوس
ورؤية
ورئيس
وراءه
ورائد
ورائع
ورائه
ورابع
وراتب
وراثي
وراحة
وراحت
وراشد
وراعي
ورافض
ورافق
ورامي
وربما
وربيع
ورجال
ورحمة
ورحيل
ورددو
وردود
ورسوم
ورشات
ورشيد
ورصدت
ورصيد
ورعاه
ورفضت
ورفضه
ورفعت
ورفيق
ورقته
ورقية
وركزت
وركوب
ورموز
ورواد
وروعة
وروما
ورياح
ورياض
وريال
وزائر
وزادت
وزارة
وزارت
وزاري
وزجاج
وزراء
وزعزع
وزعمت
وزعيم
وزمان
وزميل
وزنها
وزهير
وزوار
وزوجة
وزياد
وزيرة
وسألت
وسؤال
وسائر
وسائط
وسائق
وسائل
وسابق
وساحل
وسادت
وسارت
وسارع
وساطة
وساعد
وسافر
وسالم
وسامح
وسامي
وساند
وساهم
وسباق
وستتم
وستجد
وستجر
وستظل
وستيف
وستين
وسجلت
وسداد
وسرعا
وسرعة
وسرقة
وسرقت
وسرور
وسريع
وسطاء
وسعها
وسعود
وسعيد
وسفير
وسقطت
وسقوط
وسكان
وسلاح
وسلام
وسلطة
وسلوك
وسليم
وسماح
وسماع
وسمحت
وسمعة
وسمعت
وسميت
وسمير
وسنحت
وسنعم
وسهلا
وسواء
وسوري
وسيتم
وسيصل
وسيضم
وسيطر
وسيظل
وسيقا
وسيلة
وسيول
وشؤون
وشابة
وشادي
وشارع
وشارك
وشاعر
وشامل
وشاهد
وشباب
وشتاء
وشجون
وشددت
وشراء
وشرطة
وشرطي
وشرعت
وشركة
وشروط
وشريف
وشريك
وشعار
وشعبا
وشعبه
وشعبي
وشعرت
وشعوب
وشعور
وشفاف
وشفيق
وشقيق
وشكرا
وشكرت
وشكلت
وشمال
وشملت
وشمول
وشهاب
وشهدت
وشهود
وشوهد
وشيكا
وشيكة
وشيوخ
وصابر
وصاحب
وصادر
وصادق
وصالة
وصالح
وصانع
وصايا
وصاية
وصباح
وصحبه
وصحته
وصحفي
وصحية
وصحيح
وصدرت
وصدور
وصديق
وصراخ
وصراع
وصريح
وصعبة
وصعود
وصغار
وصغير
وصفاء
وصفات
وصفته
وصفها
وصفهم
وصفوا
وصفوه
وصلاح
وصلنا
وصلوا
وصمود
وصناع
وصورة
وصولا
وصوله
وصيته
وصيدا
وضابط
وضاعت
وضباط
وضربت
وضعته
وضعنا
وضعها
وضعهم
وضعيف
وضغوط
وضمان
وضمير
وضوحا
وضياع
وضيفه
وضيوف
وطابع
وطارق
وطاقة
وطاقم
وطالب
وطباع
وطبعا
وطبقا
وطبيب
وطبية
وطرحت
وطريق
وطقوس
وطلاب
وطلبت
وطلبو
وطلعت
وطمأن
وطموح
وطنطا
وطننا
وطنهم
وطنيا
وطنية
وطوني
وطيدة
وظائف
وظروف
وظهرت
وظهور
وظيفة
وظيفت
وظيفي
وعاجل
وعادت
وعادل
وعارض
وعارف
وعازف
وعاشت
وعاطف
وعالم
وعامر
وعامل
وعباد
وعباس
وعبرت
وعبير
وعدنا
وعدوا
وعديد
وعربي
وعرضت
وعرضه
وعرفت
وعروض
وعززت
وعزيز
وعسير
وعشاق
وعشرة
وعصام
وعطاء
وعظيم
وعقاب
وعقار
وعقدت
وعقود
وعقول
وعكار
وعلاء
وعلاج
وعلقت
وعلمت
وعلوم
وعليك
وعليه
وعماد
وعمار
وعمال
وعمان
وعمره
وعمرو
وعملا
وعملت
وعمله
وعموم
وعميد
وعميق
وعنصر
وعودا
وعودة
وعيوب
وعيون
وغابت
وغادر
وغازي
وغالب
وغانا
وغريب
وغلاء
وغموض
وغياب
وغيره
وفؤاد
وفئات
وفاته
وفادي
وفارس
وفازت
وفاعل
وفايز
وفتاة
وفتحت
وفرضت
وفروا
وفروع
وفريد
وفريق
وفساد
وفشلت
وفضاء
وفضلا
وفعال
وفعلا
وفكرة
وفلاح
وفنان
وفندق
وفنون
وفنيا
وفنية
وفوجئ
وفوزي
وفوضى
وفيات
وفيصل
وفيلم
وفيما
وفيها
وقائد
وقائع
وقائي
وقابل
وقادة
وقادت
وقادر
وقاسم
وقاطع
وقالت
وقامت
وقبرص
وقبول
وقبيل
وقتلت
وقتها
وقدرة
وقدرت
وقدره
وقدمت
وقرأت
وقرار
وقررت
وقروض
وقريب
وقرية
وقسوة
وقصفت
وقصور
وقضاء
وقضاة
وقطاع
وقطعت
وقعنا
وقعها
وقفات
وقلنا
وقلوب
وقليل
وقناة
وقوات
وقوام
وقواه
وقوبل
وقوته
وقوفه
وقوله
وقومي
وقوية
وقياد
وقياس
وقيام
وقيمة
وقيمه
وكأنن
وكأنه
وكاتب
وكادت
وكافة
وكالة
وكامل
وكانت
وكبار
وكبير
وكتاب
وكتبت
وكثير
وكذلك
وكريس
وكريم
وكسور
وكشفت
وكلاء
وكلام
وكلفت
وكلما
وكلمة
وكمال
وكمية
وكندا
وكوبا
وكيان
ولأجل
ولأسر
ولأنن
ولأنه
ولأول
ولابد
ولاحظ
ولادة
ولاشك
ولاعب
ولاقت
ولاية
ولتكن
ولجان
ولجنة
ولدوا
ولديه
ولذلك
ولسان
ولسنا
ولشعب
ولطال
ولعبت
ولعله
ولغته
ولفتت
ولفيف
ولقاء
ولكنن
ولكنه
ولكون
ولمدة
ولمنع
ولندن
ولوحظ
ولولا
وليام
وليدة
وليست
وليكن
وليلة
ومؤثر
ومؤسس
ومؤشر
ومؤلف
ومؤلم
ومؤمن
ومؤهل
ومؤيد
ومئتي
وماجد
ومادة
وماذا
ومارس
ومارك
ومازن
ومالك
وماله
ومالي
وماهر
وماهي
ومبدأ
ومبدع
ومبلغ
ومتحف
ومتعب
ومتعة
ومثال
ومثقف
ومثير
ومجال
ومجلة
ومجلس
ومجمع
ومجهز
ومحال
ومحبة
ومحبي
ومحدد
ومحرر
ومحرك
ومحسن
ومحطة
ومحمد
ومحور
ومحيط
ومختص
ومخرج
ومخطط
ومخلص
ومخيم
ومدته
ومدحت
ومدخل
ومدرب
ومدرس
ومدني
ومدير
ومرات
ومرتب
ومرجع
ومرسى
ومرشح
ومرشد
ومركب
ومركز
ومرور
ومريم
ومزاج
ومزود
ومزيد
ومساء
ومسار
ومسجد
ومسجل
ومسدس
ومسرح
ومسلح
ومسلم
ومسمع
ومشجع
ومشدد
ومشرف
ومشعل
ومشهد
ومشير
ومصاب
ومصدر
ومصرف
ومصمم
ومصنع
ومصور
ومصير
ومطار
ومطعم
ومطلع
ومطلق
ومظهر
ومعاد
ومعبر
ومعتز
ومعدل
ومعرض
ومعظم
ومعلم
ومعلن
ومعمل
ومعنى
ومعها
ومعهد
ومعهم
ومفتي
ومفصل
ومفكر
ومفوض
ومفيد
ومقار
ومقام
ومقتل
ومقدر
ومقدم
ومقرر
ومقره
ومقيم
ومكان
ومكتب
وملحق
وملعب
وممثل
وممكن
ومميز
ومناخ
ومنتج
ومنحت
ومنحه
ومنزل
ومنسق
ومنطق
ومنظم
ومنعت
ومنعه
ومنفذ
ومنها
ومنهج
ومنهم
ومهار
ومهام
ومهدي
ومهما
ومهمة
ومواد
وموجه
وموحد
وموزع
وموسم
وموسى
وموظف
وموعد
وموقع
وموقف
ومياه
ونأمل
ونؤكد
ونائب
وناجي
ونادر
ونادي
وناشد
وناشط
وناصر
وناقد
وناقش
ونالت
ونبيل
ونترك
ونجاح
ونجحت
ونجله
ونجوم
ونجيب
ونخبة
وندرك
وندعم
وندعو
ونذكر
ونرجو
ونرفض
ونريد
ونزول
ونزيف
ونزيه
ونسأل
ونساء
ونسبة
ونسبت
ونسمع
ونشأت
ونشاط
ونشرت
ونشعر
ونشكر
ونصوص
ونصيب
ونضال
ونطلب
ونظام
ونظرا
ونظمت
ونظيف
ونعرف
ونعلم
ونعمل
ونعود
ونعيش
ونفذت
ونفوذ
ونقاد
ونقاش
ونقاط
ونقدر
ونقدم
ونقرأ
ونقلت
ونقله
ونقول
ونقوم
ونقيب
ونواب
ونواف
وهاتف
وهاجم
وهادئ
وهادي
وهاني
وهبوط
وهجوم
وهداف
وهددت
وهدوء
وهران
وهروب
وهشام
وهكذا
وهموم
وهمية
وهناك
وهنري
وهيئة
وهيثم
وهيكل
وواجب
وواجه
وواحد
ووادي
وواصل
وواضح
وواعد
ووافق
وواقع
ووالد
ووجدت
ووجدو
ووجهت
ووجوب
ووجود
ووجوه
ووحدة
ووحيد
ووراء
وورلد
ووزعت
ووزنه
ووزير
ووسام
ووصفت
ووصفه
ووصلت
ووصول
ووصيف
ووضعت
ووضعه
ووضعو
ووضوح
ووطنه
ووطني
ووعدت
ووعود
ووفاء
ووفاة
ووفرت
ووفقا
ووفود
ووقته
ووقعت
ووقفت
ووقوع
ووكيل
وولاء
وولاد
ووليد
ويأتي
ويأخذ
ويأكل
ويأمل
ويؤثر
ويؤدي
ويؤسس
ويؤكد
ويؤمن
ويؤيد
وياسر
ويانا
ويباع
ويبحث
ويبدأ
ويبدو
ويبدي
ويبذل
ويبرر
ويبرز
ويبعد
ويبقى
ويبقي
ويبلغ
ويبيع
ويبين
ويتبع
ويتجه
ويتخذ
ويترك
ويتضح
ويتفق
ويتهم
ويتوج
ويتيح
ويثبت
ويثير
ويجري
ويجسد
ويجعل
ويجلس
ويجمع
ويجيب
ويجيد
ويحتل
ويحدث
ويحدد
ويحذر
ويحرص
ويحرم
ويحسب
ويحسن
ويحصل
ويحضر
ويحظر
ويحفظ
ويحقق
ويحكم
ويحكي
ويحمل
ويحمي
ويحول
ويحيط
ويحيى
ويختص
ويختم
ويخدم
ويخرج
ويخصص
ويخضع
ويخطط
ويخفف
ويخلص
ويخلق
ويخوض
ويدخل
ويدرس
ويدرك
ويدعم
ويدعو
ويدعي
ويدفع
ويدمر
ويدور
ويدير
ويدين
ويذكر
ويذهب
ويرأس
ويراع
ويراه
ويربط
ويرجح
ويرجع
ويردد
ويرسل
ويرسم
ويرصد
ويرغب
ويرفض
ويرفع
ويركز
ويرمي
ويرون
ويروي
ويريد
ويزعم
ويزور
ويزيد
ويسأل
ويسار
ويسبب
ويسبق
ويسجل
ويسدد
ويسقط
ويسكن
ويسلط
ويسلم
ويسلي
ويسمح
ويسمع
ويسهل
ويسهم
ويسود
ويسير
ويشار
ويشبه
ويشجع
ويشدد
ويشرب
ويشرح
ويشرف
ويشعر
ويشغل
ويشكل
ويشكو
ويشمل
ويشهد
ويشير
ويصبح
ويصدر
ويصعب
ويصعد
ويصنع
ويصور
ويصيب
ويضاف
ويضرب
ويضطر
ويضمن
ويضيف
ويطبق
ويطرح
ويطلب
ويطلع
ويطلق
ويطمح
ويطور
ويظهر
ويعاد
ويعبر
ويعرض
ويعرف
ويعزز
ويعطي
ويعقب
ويعقد
ويعكس
ويعلق
ويعلم
ويعلن
ويعمل
ويعني
ويعود
ويعول
ويعيد
ويعيش
ويعين
ويغطي
ويغلق
ويغيب
ويغير
ويفتح
ويفرض
ويفسر
ويفصل
ويفضل
ويفعل
ويفقد
ويفكر
ويفهم
ويفوز
ويفيد
ويقال
ويقام
ويقبل
ويقتل
ويقدر
ويقدم
ويقرأ
ويقرر
ويقسم
ويقصد
ويقضي
ويقطع
ويقلل
ويقود
ويقول
ويقوم
ويقوي
ويقيم
ويقين
ويكاد
ويكتب
ويكتف
ويكثر
ويكرر
ويكسب
ويكشف
ويكفي
ويكمل
ويكون
ويلات
ويلبي
ويلجأ
ويلحق
ويلزم
ويلعب
ويلفت
ويلقي
ويليه
ويمتد
ويمثل
ويمضي
ويمكن
ويملك
ويمنح
ويمنع
ويموت
ويميل
وينام
وينبع
وينتج
وينجح
وينزل
وينشر
وينشط
وينصح
وينضم
وينظر
وينظم
وينفذ
وينفي
وينقل
وينهي
ويهتم
ويهدد
ويهدف
ويهود
ويوجد
ويوجه
ويوزع
ويوسف
ويوضح
ويوضع
ويوفر
ويوقف
يأتوا
يأتون
يأخذو
يؤدون
يؤهله
يائسة
ياسين
يبادر
يبادل
يبارك
يباشر
يبالغ
يبتسم
يبتعد
يبتكر
يبذله
يبرهن
يبرود
يبكون
يتأثر
يتأخر
يتأكد
يتألف
يتألق
يتألم
يتأمل
يتأهل
يتابع
يتاجر
يتباه
يتبرع
يتبعه
يتبوأ
يتبين
يتتبع
يتجدد
يتجرأ
يتجزأ
يتجسد
يتجمع
يتجنب
يتجول
يتحدث
يتحدد
يتحدر
يتحرر
يتحرك
يتحسس
يتحسن
يتحصل
يتحصن
يتحفظ
يتحقق
يتحكم
يتحمل
يتحول
يتخبط
يتخرج
يتخطى
يتخلص
يتخلف
يتخلو
يتخلى
يتخوف
يتخيل
يتدخل
يتدرب
يتدفق
يتذكر
يتذمر
يتذوق
يترأس
يتربص
يتربع
يترتب
يترجم
يتردد
يترشح
يترقب
يتركز
يتزعم
يتزوج
يتسبب
يتسرب
يتسلح
يتسلل
يتسلم
يتشكل
يتصدر
يتصرف
يتصور
يتضرر
يتضمن
يتطرق
يتطلب
يتطلع
يتطور
يتعثر
يتعذر
يتعرض
يتعرف
يتعلق
يتعلم
يتعمد
يتعهد
يتعود
يتعين
يتغلب
يتغمد
يتغيب
يتغير
يتفاد
يتفرج
يتفرغ
يتفقد
يتفهم
يتفوق
يتقاض
يتقبل
يتقدم
يتقرر
يتقيد
يتكبد
يتكرر
يتكفل
يتكلف
يتكلم
يتكون
يتلقى
يتلمس
يتماش
يتمتع
يتمثل
يتمسك
يتمكن
يتملك
يتمنى
يتميز
يتناس
يتناف
يتنبه
يتنحى
يتنفس
يتنقل
يتنكر
يتهدد
يتهرب
يتوان
يتوجه
يتوحد
يتورط
يتورع
يتوزع
يتوسط
يتوسع
يتوصل
يتوعد
يتوفر
يتوقع
يتوقف
يتولى
يتولي
يتوهم
يثقون
يجادل
يجتاح
يجتاز
يجتمع
يجتهد
يجدون
يجرون
يجعلك
يجعلن
يجعله
يحارب
يحاسب
يحاصر
يحاضر
يحافظ
يحاكم
يحاكي
يحاور
يحاول
يحبها
يحبون
يحتاج
يحتجز
يحتذى
يحترف
يحترق
يحترم
يحتسب
يحتشد
يحتضن
يحتفظ
يحتفل
يحتفي
يحتكر
يحتمل
يحتوي
يحضره
يحفظه
يحققه
يحمله
يخاطب
يخالف
يختار
يختبئ
يختبر
يختتم
يخترع
يخترق
يختزل
يختزن
يختصر
يختفي
يختلط
يختلف
يخشاه
يخشون
يداعب
يدافع
يدعون
يدفعن
يدفعه
يدويا
يدوية
يديره
يديها
يذكرن
يرأسه
يراجع
يراعي
يرافق
يراقب
يراها
يراهن
يراوح
يراود
يرتاح
يرتبط
يرتدى
يرتدي
يرتفع
يرتكب
يرتكز
يرحمه
يرعاه
يرونه
يريده
يزاول
يزايد
يزداد
يسابق
يسارع
يساري
يساعد
يسافر
يسامح
يساند
يساهم
يساور
يساوم
يساوي
يسببه
يستثن
يستجب
يستجد
يستحق
يستدع
يستدل
يسترد
يستطع
يستعد
يستغل
يستغن
يستفد
يستفز
يستقر
يستقل
يستلم
يستمد
يستمر
يستمع
يستند
يستها
يستهل
يستول
يسعون
يسكنه
يسمون
يسميه
يسيئو
يسيطر
يشابه
يشارك
يشاطر
يشاهد
يشتبه
يشترط
يشترك
يشترى
يشتري
يشتغل
يشتكي
يشتمل
يشتهر
يشغله
يشكون
يشهده
يشوبه
يصاحب
يصادر
يصادف
يصادق
يصارع
يصطاد
يصطحب
يصطدم
يصفها
يصفون
يصلون
يضاعف
يضاهي
يضايق
يضطلع
يضعها
يضعون
يطارد
يطالب
يطالع
يطرحه
يطلبه
يطمئن
يظنون
يعادل
يعارض
يعاقب
يعالج
يعامل
يعاني
يعاود
يعتاد
يعتبر
يعتدي
يعتذر
يعترض
يعترف
يعتري
يعتزم
يعتقد
يعتقل
يعتمد
يعتنق
يعجبه
يعدون
يعرفه
يعرفو
يعرقل
يعسكر
يعطون
يعطيه
يعقوب
يعلون
يعنيه
يعيشه
يغادر
يغامر
يفاجأ
يفاجئ
يفارق
يفاقم
يفاوض
يفتتح
يفتخر
يفترض
يفتقد
يفتقر
يفرضه
يفعله
يفوتن
يقابل
يقاتل
يقارب
يقارن
يقاطع
يقاوم
يقتحم
يقترب
يقترح
يقترن
يقتصر
يقتضي
يقتنع
يقدمه
يقدمو
يقضون
يقودن
يقوده
يقوله
يقيمه
يقينا
يكافئ
يكافح
يكترث
يكتسب
يكتشف
يكتفي
يكتمل
يكتنف
يلائم
يلاحظ
يلاحق
يلازم
يلاقي
يلامس
يلتحق
يلتزم
يلتفت
يلتقط
يلتقى
يلتقي
يلتمس
يلتهم
يلعبه
يلقاه
يلقون
يلماظ
يليها
يماثل
يمارس
يمانع
يماني
يمتاز
يمتثل
يمتلك
يمتنع
يمتهن
يمثله
يمكنك
يمكنه
يملكه
يمليه
يمنحه
يمنعه
يمنية
يمينا
ينادى
ينادي
يناسب
يناشد
يناضل
ينافس
يناقش
يناقض
يناهز
يناير
ينبثق
ينبغى
ينبغي
ينتاب
ينتبه
ينتحر
ينتخب
ينتزع
ينتسب
ينتشر
ينتصر
ينتظر
ينتظم
ينتفض
ينتقد
ينتقص
ينتقل
ينتقم
ينتمي
ينتهج
ينتهك
ينتهى
ينتهي
ينحاز
ينحدر
ينحصر
ينخرط
ينخفض
يندرج
يندفع
ينساب
ينساه
ينسجم
ينسحب
ينسوا
ينشده
ينشغل
ينصرف
ينطبق
ينطلق
ينطوي
ينظمه
ينعقد
ينعكس
ينفتح
ينفجر
ينفرد
ينفصل
ينقسم
ينقصه
ينقطع
ينقلب
ينهار
يهاجر
يهاجم
يهمني
يهمها
يهمهم
يهودا
يهودي
يهيمن
يواجه
يوازي
يواصل
يوافق
يواكب
يوتوب
يوحنا
يودون
يورغن
يوليه
يوليو
يومنا
يومها
يوميا
يومية
يومين
يونان
يونكر
يونيه
يونيو
يوهان
##,0,0
##,500
##.03.
##00.0
##0400
##1.00
##1.75
##1500
##1514
##1990
##1994
##1995
##1996
##1997
##1998
##2.00
##2001
##2002
##2003
##2004
##2005
##2006
##2007
##2008
##2009
##2010
##2011
##2012
##2013
##2014
##2015
##2016
##50.0
##5500
##able
##alch
##ance
##ards
##assa
##atch
##ator
##cent
##cess
##ence
##ical
##icle
##ight
##indo
##land
##line
##mail
##ment
##mula
##ning
##orld
##ound
##ouni
##port
##ries
##roup
##sion
##ssia
##ster
##tain
##ther
##tion
##ture
##آبار
##آذار
##آراء
##آفات
##آلاف
##أئمة
##أبدى
##أبسط
##أبشع
##أبقى
##أبهر
##أبهى
##أتلف
##أثار
##أثنى
##أجدر
##أجود
##أحدث
##أحلى
##أحمد
##أحمر
##أخرى
##أداء
##أداة
##أدنى
##أذرع
##أذون
##أرخص
##أرفف
##أرقى
##أرنب
##أروع
##أزرق
##أزقة
##أزمة
##أسرع
##أسمح
##أسمى
##أسوأ
##أشجع
##أشعة
##أشهر
##أصبع
##أضاف
##أضحى
##أطقم
##أعلن
##أعلى
##أعني
##أغلى
##أفئد
##أفخم
##أفضل
##أفظع
##أفعى
##أقدر
##أقدس
##أقسى
##أقصى
##أقوى
##أكثر
##ألغى
##أمضى
##أمير
##أنثى
##أننا
##أنني
##أهبة
##أوبك
##أوصى
##أوضح
##أيام
##أيدى
##أيمن
##ؤازر
##إحدى
##إصبع
##إطار
##إنني
##ئوية
##اؤنا
##اؤها
##اؤهم
##ائكم
##ائمة
##ائنا
##ائها
##ائهم
##ائية
##ائيل
##ابات
##ابتك
##ابرز
##ابها
##ابية
##اتشي
##اتنا
##اتها
##اتهم
##اجات
##اجدر
##اجرى
##احلى
##اخير
##اداب
##اداة
##ادات
##ادته
##ادلة
##ادلى
##ادمي
##ادنى
##ادهم
##اديا
##ادية
##ادين
##ارات
##ارته
##ارتي
##اردو
##ارطة
##ارلي
##ارنو
##اروف
##اريا
##ارية
##اريس
##ارين
##اريو
##ازاء
##ازرق
##ازمة
##اسبة
##اسكو
##اسوأ
##اسيا
##اسية
##اسيو
##اشعة
##اشهر
##اصغر
##اضخم
##افات
##افية
##افيد
##افير
##اقتي
##اقسى
##اقوى
##اكوف
##اكين
##الات
##التي
##الدو
##الدي
##الذي
##الطا
##الله
##الية
##الين
##امات
##امبا
##امبو
##امبي
##امرئ
##امكو
##امنة
##امها
##امور
##امية
##امير
##انتي
##اندا
##انكا
##انكو
##اننا
##انني
##انوف
##انيا
##انية
##انيس
##اهية
##اوية
##ايات
##ايبو
##ايكل
##اييف
##بؤرة
##باءت
##باجة
##باحة
##باحث
##بادة
##بادر
##بادي
##بارت
##بارد
##بارك
##باري
##باشر
##باقة
##باقى
##باقي
##بالغ
##بالي
##باني
##باهي
##باوم
##بايا
##باير
##بايع
##باين
##بتدئ
##بتدع
##بتسم
##بتعث
##بتعد
##بتغى
##بتكر
##بتلع
##بتها
##بتهج
##بثقة
##بثقت
##بحصة
##بخار
##بديل
##بذلك
##براز
##برام
##برتو
##برغر
##برغم
##برلي
##برمج
##برهن
##بروت
##بروز
##بروك
##بروم
##بساط
##بسبب
##بسلة
##بسون
##بصرف
##بطاح
##بطرس
##بعاث
##بعاد
##بعنا
##بعوث
##بغاء
##بقار
##بقعة
##بقمي
##بكاء
##بكوف
##بلات
##بلاد
##بلاغ
##بلبل
##بلسم
##بلطج
##بلور
##بناء
##بهجة
##بهوا
##بوذا
##بورت
##بورج
##بورغ
##بورن
##بوري
##بولي
##بيئة
##بيار
##بياض
##بيان
##بيرج
##بيرغ
##بيري
##بيلا
##بيلي
##بيوت
##تآكل
##تآلف
##تآمر
##تأتى
##تأثر
##تأجج
##تأخر
##تأزم
##تأسف
##تأصل
##تأفف
##تأكد
##تألق
##تألم
##تأمل
##تأهب
##تأهل
##تابع
##تاثر
##تاجر
##تاري
##تاكا
##تاكد
##تالو
##تالي
##تايم
##تباه
##تبجح
##تبخر
##تبدد
##تبدل
##تبرأ
##تبرؤ
##تبرع
##تبسة
##تبضع
##تبقى
##تبنى
##تبوأ
##تبوؤ
##تبوك
##تبين
##تتبع
##تتسع
##تثبت
##تجدد
##تجدر
##تجذر
##تجرأ
##تجرد
##تجرع
##تجرى
##تجسس
##تجلط
##تجلى
##تجمد
##تجمع
##تجنب
##تجول
##تحجج
##تحدث
##تحدى
##تحرر
##تحرك
##تحسر
##تحسس
##تحصن
##تحضر
##تحطم
##تحفظ
##تحقق
##تحمس
##تحمل
##تحول
##تحيز
##تخبط
##تخثر
##تخرج
##تخصص
##تخطى
##تخطي
##تخلص
##تخلف
##تخلل
##تخلى
##تخمة
##تخوف
##تخيل
##تدبر
##تدخل
##تدرب
##تدرج
##تدعى
##تدفق
##تدنى
##تذرع
##تذكر
##تذمر
##تذوق
##تذيل
##ترأس
##تراح
##تراس
##تراض
##ترام
##تربة
##تربص
##تربع
##ترتب
##ترجم
##ترحم
##تردد
##ترسب
##ترشح
##ترفع
##ترقب
##ترقى
##تركز
##ترنح
##ترهل
##ترون
##تريث
##تريك
##تزال
##تزكي
##تزوج
##تزود
##تساب
##تسبب
##تسرب
##تسرع
##تسعى
##تسكع
##تسلق
##تسلل
##تسلم
##تسمى
##تسول
##تشار
##تشبث
##تشتت
##تشدد
##تشدق
##تشرد
##تشرف
##تشظي
##تشعب
##تشكك
##تشكل
##تشكي
##تشنج
##تشوق
##تشوك
##تشيف
##تشيك
##تصال
##تصحر
##تصدر
##تصرف
##تصفح
##تصمد
##تصور
##تصيد
##تضخم
##تضرر
##تضرع
##تضمن
##تطرف
##تطرق
##تطفل
##تطلب
##تطلع
##تطهر
##تطور
##تطوع
##تظلم
##تعاب
##تعاط
##تعثر
##تعجب
##تعجل
##تعدى
##تعرض
##تعرف
##تعزز
##تعسف
##تعشت
##تعصب
##تعصف
##تعطش
##تعطل
##تعطى
##تعفف
##تعفن
##تعلق
##تعلم
##تعمد
##تعهد
##تعود
##تغاض
##تغزل
##تغلب
##تغيب
##تغير
##تفاح
##تفتت
##تفحص
##تفرج
##تفرع
##تفرغ
##تفرق
##تفشى
##تفشي
##تفطن
##تفكك
##تفنن
##تفهم
##تفوق
##تفوه
##تقاد
##تقان
##تقبل
##تقدم
##تقرب
##تقشف
##تقلب
##تقلص
##تقوى
##تقيؤ
##تقيد
##تكاد
##تكبد
##تكتم
##تكثر
##تكدس
##تكسب
##تكفل
##تكلف
##تكلم
##تكهن
##تكون
##تلاف
##تلبث
##تلخص
##تلذذ
##تلصص
##تلفظ
##تلقى
##تلقي
##تلمذ
##تلهف
##تمار
##تمان
##تمتع
##تمثل
##تمدد
##تمرد
##تمسك
##تمعن
##تمكن
##تملص
##تملك
##تمنى
##تمهل
##تموه
##تميز
##تنبت
##تنبه
##تنجم
##تنحى
##تندد
##تنزه
##تنشئ
##تنشق
##تنفس
##تنقل
##تنكر
##تنمي
##تنهد
##تهام
##تهجم
##تهرب
##تهشم
##تهكم
##تهما
##تهيج
##توجد
##توجه
##توحش
##توخى
##تودد
##تورط
##توري
##توزع
##توسط
##توسع
##توسل
##توصل
##توضع
##توطئ
##توغل
##توفر
##توفى
##توقع
##توقف
##توكل
##تولد
##تولى
##توهج
##تياز
##تيري
##تيقظ
##تيقن
##تيكا
##تيكي
##تيمو
##تييه
##ثابر
##ثالث
##ثبات
##ثراء
##ثرثر
##ثروب
##ثروة
##ثرية
##ثقال
##ثقتي
##ثقيف
##ثكنة
##ثلاث
##ثمار
##ثمرة
##ثناء
##ثنية
##ثواب
##جائز
##جابت
##جابر
##جاذب
##جارة
##جارد
##جاري
##جاسم
##جانب
##جانج
##جاني
##جاهد
##جاوب
##جاور
##جبهة
##جتاح
##جتاز
##جتذب
##جتمع
##جتهد
##جحود
##جدوا
##جدوى
##جديد
##جذور
##جذوع
##جرأة
##جراء
##جراف
##جرام
##جرعة
##جريد
##جزاء
##جزاف
##جزيء
##جزيئ
##جلاء
##جلاس
##جلال
##جلان
##جلوي
##جليز
##جماع
##جمال
##جمرك
##جموع
##جميع
##جناز
##جنحة
##جنسي
##جنون
##جنيه
##جهاد
##جهاز
##جهوا
##جهود
##جهول
##جواب
##جوار
##جواز
##جوال
##جوان
##جولة
##جوهر
##جياد
##جيان
##جيرو
##جيلا
##جيني
##جيوش
##حؤول
##حائط
##حائل
##حاتم
##حادث
##حاذق
##حارب
##حاسب
##حاسن
##حاصر
##حاضر
##حاضن
##حافة
##حافظ
##حاكم
##حالة
##حاور
##حاول
##حايا
##حباب
##حبذا
##حبوب
##حبيب
##حتاج
##حتجز
##حترف
##حترم
##حتسب
##حتضن
##حتفظ
##حتفل
##حتمل
##حتوى
##حتوي
##حجار
##حداث
##حداق
##حدود
##حديث
##حذاء
##حذية
##حراج
##حرار
##حراز
##حرفت
##حرير
##حريق
##حزاب
##حزام
##حزمة
##حساء
##حسين
##حصار
##حصول
##حضار
##حظوا
##حظوظ
##حفاظ
##حقبة
##حكام
##حلال
##حلوا
##حليل
##حماس
##حمال
##حمام
##حمزة
##حناء
##حنكة
##حوزة
##حوطة
##حيرة
##حيوا
##خابر
##خادع
##خادم
##خارج
##خازن
##خاطب
##خاطر
##خالد
##خالص
##خالف
##خالق
##خبار
##ختار
##ختام
##ختبئ
##ختبر
##ختتم
##خترع
##خترق
##ختزل
##ختزن
##ختصر
##ختلط
##ختلف
##ختنق
##خدمة
##خدود
##خدوش
##خراب
##خراج
##خروج
##خريج
##خريف
##خشاب
##خشوع
##خشية
##خصخص
##خضعو
##خضوع
##خضير
##خطبة
##خطوط
##خفاء
##خفاق
##خففت
##خلاء
##خلاص
##خلاط
##خلاف
##خلال
##خلخل
##خلود
##خليل
##خماس
##خميس
##خواص
##خيار
##دائي
##داخل
##داعي
##دافع
##دالة
##دانة
##داود
##دباس
##دببة
##دبكة
##دتها
##دثار
##دحام
##دخول
##ددين
##دراج
##درار
##دراك
##درجة
##درجت
##دردش
##دروس
##دريس
##درين
##دسون
##دشتي
##دعاء
##دعني
##دعوة
##دغدغ
##دفوع
##دفيد
##دلاء
##دليل
##دماج
##دماك
##دمتم
##دمغة
##دندن
##دهاء
##دهار
##دهشت
##دهوك
##دواء
##دوار
##دودة
##دولة
##دوني
##دويش
##دويل
##ديان
##دينا
##دينغ
##ذئاب
##ذاكر
##ذاهب
##ذرعا
##ذكاء
##ذلول
##ذهان
##ذهول
##ذواق
##ذويب
##رؤوس
##رؤية
##رئاس
##رئىس
##رئيس
##رئيل
##راؤو
##رائب
##رابح
##رابط
##رابي
##راجع
##رازي
##راشد
##راصد
##راضى
##راضي
##راعى
##راعي
##رافق
##راقب
##راقص
##راكب
##رالي
##رامي
##رانج
##راني
##راهن
##راوا
##راوة
##راوح
##راوغ
##راوي
##رايا
##ربرت
##ربما
##ربنا
##ربيع
##ربين
##رتاح
##رتاد
##رتال
##رتبط
##رتجف
##رتدي
##رتطم
##رتفع
##رتكب
##رتكز
##رتها
##رتون
##رجاء
##رجال
##رخاء
##ردنا
##ردوا
##ردود
##ردين
##رذاذ
##رزاق
##رزمة
##رسال
##رسوا
##رسون
##رصيف
##رضاء
##رضوا
##رضوخ
##رعاة
##رعشة
##رعوا
##رعية
##رغبة
##رفرف
##رفقة
##رفيس
##رفيق
##رفيل
##رفين
##رقاب
##رقاق
##رقعة
##رقية
##ركان
##ركلة
##ركود
##ركون
##ركيز
##رلند
##رماة
##رماح
##رماد
##رمان
##رموز
##رموش
##رمون
##رنوت
##رنية
##رهاب
##رهان
##رهوف
##رواح
##روسي
##روضة
##رويز
##رياس
##ريال
##ريان
##ريتا
##ريتز
##ريتش
##ريست
##ريكا
##ريكو
##ريكي
##ريلا
##ريلي
##رينا
##رينج
##رينغ
##رينو
##ريوس
##رييل
##زئبق
##زاحم
##زاكي
##زاني
##زاهر
##زاوج
##زاول
##زايد
##زبال
##زحزح
##زداد
##زدحم
##زدهر
##زراع
##زركش
##زعزع
##زكاة
##زكري
##زلام
##زلزل
##زلنا
##زمان
##زمنة
##زهور
##زواج
##زوري
##زياح
##زيان
##زيتش
##زيكو
##زيوت
##زيوم
##سأظل
##سائل
##سائم
##سابق
##سابك
##ساجر
##ساحة
##سارع
##ساسة
##ساسي
##ساعة
##ساعد
##ساعى
##سافر
##ساكا
##ساكي
##سالم
##سامح
##ساند
##ساهم
##ساوم
##ساوي
##سايد
##ساير
##سباب
##سبان
##سبور
##ستاد
##ستار
##ستال
##ستان
##ستبق
##ستحق
##ستشف
##ستعد
##ستغل
##ستفد
##ستفز
##ستقر
##ستمد
##ستمر
##ستمع
##ستند
##ستهل
##ستور
##ستون
##ستيج
##ستير
##ستيك
##ستيل
##ستين
##سدال
##سرار
##سرير
##سطام
##سطوة
##سعاد
##سعار
##سعاف
##سعيد
##سفلت
##سفير
##سفيل
##سفين
##سقوف
##سكان
##سكوا
##سكوب
##سكوت
##سكين
##سلاف
##سلام
##سلتا
##سلوب
##سليم
##سماد
##سماع
##سماك
##سمان
##سنرى
##سنظل
##سنين
##سهول
##سواق
##سوبر
##سوسة
##سياح
##سياد
##سياس
##سيان
##سيتي
##سيطر
##سيكل
##سيكو
##سيما
##سيني
##سيوس
##سيون
##شائخ
##شائه
##شادى
##شارب
##شارة
##شارك
##شاري
##شاشة
##شاطر
##شاعت
##شاعر
##شاغل
##شاهد
##شاور
##شاير
##شباط
##شبكة
##شبين
##شتات
##شتاق
##شتبك
##شتبه
##شترط
##شترك
##شترى
##شتري
##شتعل
##شتغل
##شتمل
##شتهر
##شجار
##شخير
##شراح
##شراق
##شرذم
##شرطة
##شركة
##شروع
##شعاب
##شعاع
##شعوب
##شعور
##شفاء
##شلون
##شنكو
##شهور
##شهير
##شوار
##شودة
##شويش
##شيار
##شيان
##شيكو
##شينغ
##صائر
##صاحب
##صادر
##صادف
##صادق
##صارح
##صارع
##صاعد
##صافح
##صالة
##صالح
##صانع
##صباح
##صباغ
##صبغة
##صحاب
##صحاح
##صحبة
##صحوة
##صحيح
##صخور
##صداع
##صداق
##صدرت
##صديق
##صراف
##صرام
##صرنا
##صروا
##صريح
##صطاد
##صطحب
##صطدم
##صطلح
##صطنع
##صعدة
##صفحة
##صفقة
##صفوف
##صقيع
##صكوك
##صلاح
##صلصة
##صلوا
##صليب
##صليح
##صمام
##صناع
##صندل
##صهار
##صومة
##صياد
##صيحة
##ضابط
##ضاعف
##ضايق
##ضباط
##ضبوط
##ضجيج
##ضراب
##ضرار
##ضرام
##ضطلع
##ضطهد
##ضعاف
##ضعنا
##ضفدع
##ضلوع
##ضواح
##طائف
##طابق
##طارد
##طاعة
##طالب
##طالع
##طاهر
##طاوع
##طاول
##طاوي
##طايا
##طباع
##طباق
##طبوع
##طبيب
##طراف
##طريق
##طعام
##طغاة
##طفاء
##طلاب
##طلاع
##طلاق
##طلال
##طلعة
##طلقت
##طمأن
##طمئن
##طوار
##طوني
##طويق
##طياف
##ظاهر
##ظفار
##ظلال
##ظلام
##ظلوا
##ظنون
##ظهير
##عابر
##عاتب
##عادة
##عادل
##عارض
##عازف
##عاشق
##عاصر
##عاصم
##عاضد
##عاطف
##عاطل
##عاقب
##عالج
##عالم
##عالي
##عاما
##عامل
##عاني
##عاهد
##عاود
##عايد
##عايش
##عبئا
##عباس
##عبوة
##عبيد
##عتاب
##عتاد
##عتاق
##عتبر
##عتذر
##عترض
##عترف
##عتزل
##عتصم
##عتقد
##عتقل
##عتكف
##عتمة
##عتمد
##عتنا
##عتنق
##عتها
##عثور
##عجاب
##عجلة
##عجمي
##عدام
##عدسة
##عراض
##عراف
##عراق
##عرعر
##عرقل
##عزبة
##عزيز
##عسكر
##عشية
##عشيق
##عصور
##عضلة
##عطاف
##عطفا
##عطور
##عظيم
##عفيف
##عقاد
##عقوب
##عقود
##عكاس
##علاف
##علام
##علكة
##عمار
##عمال
##عمدة
##عناب
##عنيز
##عوان
##عودة
##عوسي
##عويض
##عياذ
##عيار
##عياف
##عيسى
##غائب
##غادة
##غادر
##غارد
##غاري
##غاسل
##غالب
##غالي
##غامر
##غانغ
##غانم
##غاني
##غاية
##غباء
##غبار
##غبطة
##غتال
##غترب
##غتسل
##غتصب
##غتنم
##غذاء
##غراء
##غراب
##غراد
##غراس
##غراف
##غرام
##غريب
##غريد
##غريف
##غريق
##غسان
##غسطس
##غسيل
##غشاء
##غطية
##غلاس
##غلاق
##غلال
##غلوم
##غناء
##غنام
##غوار
##غواي
##غوطة
##غولا
##غولف
##غولي
##غياب
##غياث
##غياه
##فؤاد
##فائز
##فائض
##فاتح
##فاجأ
##فاجئ
##فاحش
##فاخر
##فادة
##فارس
##فارط
##فارغ
##فارق
##فاصل
##فاضل
##فاعل
##فاغن
##فاكس
##فانا
##فاني
##فاوض
##فايا
##فتئت
##فتاء
##فتاح
##فتتح
##فتخر
##فترة
##فترض
##فترق
##فترى
##فتقد
##فتوح
##فتوى
##فجأة
##فجار
##فحوص
##فخاخ
##فخار
##فراج
##فراد
##فراز
##فراغ
##فراق
##فران
##فرست
##فرنس
##فروع
##فريد
##فريق
##فزنا
##فزيع
##فساد
##فسكم
##فسكي
##فسهم
##فصال
##فضوا
##فطنة
##فطير
##فعال
##فعول
##فقنا
##فقوا
##فكاك
##فلات
##فلتة
##فلسف
##فلفل
##فلور
##فهرس
##فهوم
##فورد
##فيتز
##فيتش
##فيرا
##فيزي
##فيست
##فيصل
##فيلد
##فيلم
##فيلي
##فينا
##فيني
##قائد
##قابس
##قابض
##قابل
##قاتل
##قادة
##قارب
##قارن
##قاضي
##قاطع
##قالت
##قامت
##قاني
##قاوم
##قايا
##قايض
##قباض
##قبضة
##قبعة
##قتبس
##قتحم
##قترب
##قترح
##قترض
##قترع
##قتصر
##قتضي
##قتطع
##قتطف
##قتنا
##قتنص
##قتنع
##قتها
##قدار
##قديح
##قذوا
##قراء
##قرار
##قراض
##قراط
##قران
##قرحة
##قرعة
##قرير
##قزام
##قساط
##قسام
##قسمة
##قشرة
##قضاء
##قضوا
##قضية
##قطاب
##قطاع
##قفاص
##قفال
##قفصة
##قلاب
##قلاع
##قلال
##قلعة
##قلوب
##قمار
##قمنا
##قميص
##قناص
##قنصل
##قهقه
##قهوة
##قياء
##قياس
##كآبة
##كائن
##كابر
##كاتب
##كاحل
##كاذب
##كاري
##كاشف
##كافأ
##كافئ
##كافح
##كاكا
##كالي
##كامب
##كانت
##كاوا
##كايا
##كبير
##كتئب
##كتاب
##كتاش
##كتتب
##كتسب
##كتشف
##كتفي
##كتمل
##كتور
##كثير
##كدمة
##كذلك
##كرام
##كران
##كرسى
##كروب
##كروم
##كسار
##كسوة
##كسير
##كسيل
##كشاف
##كشفت
##كفاء
##كفاح
##كفوف
##كفير
##كفيل
##كلفة
##كلنا
##كلور
##كلير
##كليف
##كمال
##كهرب
##كهنة
##كهول
##كورب
##كورد
##كوري
##كوفا
##كونا
##كوني
##كويت
##كوين
##كيان
##كيلو
##كينز
##كينغ
##كييف
##لؤلؤ
##لاجئ
##لاحظ
##لاحق
##لازم
##لاشك
##لاعب
##لاقى
##لاقي
##لامس
##لامي
##لاند
##لاني
##لاوي
##لايت
##لاين
##لبان
##لبدة
##لبسة
##لبوم
##لتان
##لتبس
##لتحق
##لتحم
##لتزم
##لتصق
##لتفت
##لتقط
##لتقي
##لتمس
##لتها
##لتهم
##لتون
##لتين
##لثقة
##لجبل
##لجزء
##لجيش
##لحسن
##لحصد
##لخطة
##لذلك
##لربع
##لزام
##لزبر
##لسمو
##لسوء
##لسون
##لشدة
##لشرق
##لشفط
##لشيخ
##لصاق
##لصحة
##لصحف
##لعدة
##لعدم
##لعرب
##لعنا
##لعين
##لغاز
##لغرب
##لفئة
##لفين
##لقاء
##لقطة
##لقلة
##لقوة
##لمان
##لموت
##لندي
##لنفط
##لنكن
##لهجة
##لهجن
##لهذه
##لهفة
##لوجي
##لوطن
##لوعة
##لوكس
##لولة
##لوند
##لوني
##ليان
##ليرى
##ليزي
##ليفر
##ليكس
##لينا
##لينج
##لينغ
##ليني
##ليوم
##لييه
##مآرب
##مآزق
##مئات
##مائة
##ماثل
##ماذا
##مارس
##مارك
##مانع
##ماني
##ماوي
##مايو
##مبرة
##مبرر
##مبنى
##متاع
##متثل
##متحن
##مترا
##متلئ
##متلك
##متنع
##متها
##مثال
##مثلة
##مثول
##مثيل
##مجرد
##مجرى
##مجيء
##محرم
##محمد
##محور
##مدلج
##مذاق
##مرآب
##مرآة
##مرأة
##مرات
##مراض
##مربع
##مرفق
##مركز
##مريض
##مزيد
##مسمى
##مسوح
##مشيط
##مصلى
##مضاي
##مضخة
##مضوا
##مطار
##مظلة
##معزل
##معطى
##معنى
##مغنط
##مفتى
##مقهى
##مكوث
##ملؤه
##ملاح
##ملاك
##ملهى
##مهور
##موئل
##موتو
##موجة
##موظف
##موقع
##موكب
##مونت
##موند
##موني
##مياط
##ميتر
##ميكر
##مينا
##ميني
##ميول
##نأسف
##نابل
##ناتج
##ناجح
##نادى
##نادي
##نازع
##ناسب
##ناشد
##ناصب
##ناصر
##ناضل
##ناطق
##ناظر
##نافذ
##نافس
##ناقش
##ناقض
##ناها
##ناهض
##ناهم
##ناور
##نايا
##نايف
##نبثق
##نبرة
##نبرج
##نبرغ
##نبغي
##نبقى
##نتاج
##نتال
##نتجت
##نتخب
##نتشر
##نتصر
##نتظر
##نتعش
##نتفخ
##نتفع
##نتقد
##نتقل
##نتها
##نتهي
##نتون
##نتيج
##نتيف
##نجلس
##نحدر
##نحسر
##نحصر
##نخاع
##نخرط
##نخفض
##ندرة
##ندلر
##ندلس
##ندلع
##ندوب
##ندوة
##ندوز
##ندية
##نركز
##نزال
##نزحو
##نسحب
##نسكي
##نسون
##نسية
##نشاء
##نشاط
##نشبت
##نشرت
##نشطت
##نشغل
##نشوء
##نضاج
##نضطر
##نضوب
##نضوج
##نطلق
##نظار
##نظام
##نظمت
##نظيم
##نعاس
##نعقد
##نعكس
##نعول
##نعيم
##نغمة
##نغيس
##نفاذ
##نفحة
##نفدت
##نفصل
##نفير
##نقاذ
##نقطة
##نكاح
##نكمش
##نكهة
##نماء
##نهضة
##نواة
##نوبة
##نوبل
##نيان
##نيتش
##نينا
##نيوز
##نييه
##هاجس
##هاجم
##هارت
##هارد
##هانى
##هدنة
##هدوء
##هرتا
##هرتز
##هكذا
##هلاك
##هلال
##همنا
##هناك
##هنيئ
##هواء
##هيكل
##وأكد
##وائل
##وابل
##واتي
##واجه
##واحد
##واخر
##وادى
##وارد
##واري
##وازن
##وازي
##واسط
##واسع
##واصل
##واظب
##وافد
##وافق
##واقع
##واكب
##واكد
##والد
##والي
##وانا
##واني
##واهب
##وبات
##وبعد
##وبيس
##وبين
##وتشي
##وثقة
##وجاء
##وجود
##وجين
##وحدة
##وداد
##ودية
##وذكر
##وذلك
##ورات
##وردي
##ورنر
##ورنو
##ورية
##وريس
##ورين
##وزار
##وزان
##وزير
##وزين
##وساط
##وسيط
##وشدد
##وشهر
##وصرح
##وصية
##وضوح
##وعات
##وعلى
##وعية
##وغلو
##وفاء
##وفود
##وفون
##وفير
##وقال
##وقوف
##وكان
##ولات
##ولفت
##ولكن
##وللر
##ولوج
##ولون
##وليت
##وليد
##ولين
##ومات
##ومبو
##ومبي
##ومتر
##ومين
##ونتي
##وندا
##وننا
##ونني
##ونها
##ونوف
##ونيا
##ونية
##ونيس
##وهذا
##وهين
##ويات
##ويرى
##ويطر
##ويعر
##يأتى
##ياته
##ياكو
##يانا
##يانغ
##يانو
##ياني
##ياهو
##يبات
##يبدو
##يتاح
##يتان
##يتري
##يتنا
##يتها
##يتهم
##يتون
##يتين
##يجاب
##يجار
##يجان
##يجوز
##يحظى
##يحمى
##يخشى
##يدعى
##يذكر
##يرات
##يران
##يرلي
##يرمو
##يرنر
##يروس
##يرين
##يستا
##يستو
##يسكو
##يسمى
##يطغى
##يطيب
##يعاز
##يعان
##يغان
##يغور
##يفية
##يفير
##يفين
##يقضى
##يقظة
##يكفى
##يكمن
##يكية
##يلات
##يلار
##يلان
##يللر
##يللو
##يللي
##يلون
##يلية
##يمان
##يمبو
##يمبي
##يملر
##يموف
##يمون
##يميا
##ينال
##ينتس
##ينغز
##ينكو
##ينهو
##ينوى
##ينيو
##يهما
##يوسف
##يونس
Arabic
[MASK]
آبائهم
آثارها
آراؤهم
آرائهم
آسيويا
آسيوية
آمالهم
أبرزها
أبرزهم
أبرشية
أبرياء
أبعاده
أبلغنا
أبناؤه
أبنائه
أبوابه
أبوبكر
أبوزيد
أبوظبى
أبوظبي
أتباعه
أتساءل
أتلانت
أتليتك
أتمناه
أتناول
أتوبيس
أثرياء
أجرتها
أجرينا
أجزائه
أجمعين
أجنبيا
أجنبية
أجندات
أجندته
أجورهم
أحادية
أحاديث
أحاسيس
أحداثه
أحدهما
أحقيته
أحكاما
أحلامه
أحيانا
أخبرنا
أخبرني
أخريات
أخصائي
أخطائه
أخلاقي
أدائها
أدائهم
أدبيات
أدونيس
أرادوا
أراضيه
أرباحا
أربعين
أرجائه
أردنية
أرسلان
أرسلنا
أرسلوا
أرسنال
أرصدته
أرقاما
أزمتها
أسئلتك
أسئلته
أسابيع
أساتذة
أساسها
أساسيا
أساسية
أساطير
أساقفة
أساليب
أسبابه
أسبوعا
أستاذا
أستاذة
أستبعد
أستخدم
أستطيع
أستغرب
أسرتها
أسطورة
أسطوري
أسلافه
أسلحته
أسلوبا
أسلوبه
أسمهان
أسهمها
أشخاصا
أشقائه
أشكاله
أصابها
أصبحنا
أصحابه
أصدرته
أصدرها
أصدقاء
أصولها
أصيبوا
أضرارا
أطلقته
أطلقنا
أطلقها
أطلقوا
أظهروا
أعتبره
أعدائه
أعدادا
أعدتها
أعصابه
أعضاؤه
أعضائه
أعلنته
أعلنها
أعماره
أعماله
أعيننا
أعينهم
أغانيه
أغلبها
أغلبهم
أغلبية
أغنياء
أغنيات
أغنيته
أفادنا
أفرزته
أفريقى
أفريقي
أفضلية
أفغاني
أفكارا
أفكاره
أفلامه
أقاربه
أقاليم
أقامته
أقامها
أقرانه
أقرباء
أقرتها
أقصاها
أقواله
أقوياء
أكاذيب
أكتوبر
أكثرية
ألاسكا
ألبرتو
ألبومه
ألفريد
ألفونس
ألقاها
ألماني
ألونسو
أمازون
أمامنا
أمامها
أمامهم
أمريكا
أمريكى
أمريكي
أمسيات
أمنيات
أموالا
أمواله
أمورنا
أمورهم
أميركا
أميركي
أنابيب
أناشيد
أنتجته
أنتوني
أنجلوس
أنجليس
أنجولا
أندريا
أندريه
أنشأها
أنشطته
أنصاره
أنطوان
أنطوني
أنغولا
أنغيلا
أنفاسه
أنفسكم
أنفسنا
أنفسهم
أنفسهن
أنموذج
أنيبال
أهدافه
أهلاوى
أهميته
أوامره
أوباما
أوبريت
أوتاوا
أوجلان
أوجيرو
أوراقه
أوردته
أوروبا
أوروبي
أوسطية
أوسكار
أوغندا
أوفياء
أوقفوا
أوكسيد
أولاده
أولادي
أولمبي
أولمرت
أولهما
أولوية
أولياء
أوليفر
أوليمب
أوهايو
أويحيى
أيامنا
أيدينا
أيديهم
أيقونة
إباحية
إبداعي
إثارته
إجابات
إجابته
إجازات
إجازته
إجباري
إجتماع
إجراؤه
إجرائه
إجرائي
إجمالا
إجمالى
إجمالي
إحالته
إحداها
إحداهن
إحصائي
إحيائه
إخباري
إختيار
إخطارا
إخوانى
إخواني
إدارات
إدارته
إدارتي
إداريا
إدارية
إدانته
إدوارد
إذاعية
إرادته
إرهابي
إزالته
إسباني
إسكندر
إسلامى
إسلامي
إشارات
إشارته
إشاعات
إصابات
إصابته
إصداره
إصراره
إضافته
إضافيا
إضافية
إضرابا
إطارات
إطلاقا
إطلاقه
إعادته
إعارته
إعانات
إعتبار
إعجابه
إعداده
إعطاؤه
إعطائه
إعلامى
إعلامي
إعلانه
إغلاقه
إفادات
إفادته
إفريقي
إقالته
إقامته
إقبالا
إقراره
إقليمي
إكرامى
إلتزام
إلحاحا
إلغاؤه
إلغائه
إلقائه
إليهما
إمارات
إمبابة
إنتاجه
إنترنت
إنجازا
إنجازه
إنذارا
إنسانا
إنساني
إنشاؤه
إنشائه
إنطلاق
إنقاذه
إيجابا
إيجابى
إيجابي
إيراني
إيرباص
إيطالي
إيقافه
إيمانا
إيمانه
ائتلاف
ائتمان
ابتداء
ابتزاز
ابتسام
ابتعاد
ابتعدت
ابتكار
ابتكرت
ابتلاع
ابداعي
ابرزها
ابرهيم
ابرياء
ابناؤه
ابنائه
ابنتها
ابوظبي
اتخاذه
اتخذته
اتخذنا
اتخذها
اتصالا
اتفاقا
اتفقنا
اتفقوا
اتلانت
اتلتيك
اتهامه
اثنتان
اثنتين
اجابات
اجازته
اجتاحت
اجتازت
اجتثاث
اجتذاب
اجتماع
اجتمعت
اجتهاد
اجتياح
اجتياز
اجمالي
اجنبية
اجهزته
احالته
احتجاج
احتجاز
احتجزت
احتجزو
احتدام
احتراف
احتراق
احترام
احترقت
احتساب
احتشدو
احتضان
احتضنت
احتفاء
احتفاظ
احتفال
احتفظت
احتفلت
احتقار
احتقان
احتكار
احتكاك
احتلال
احتمال
احتواء
احتياج
احتياط
احتيال
احيانا
اختارت
اختاره
اختارو
اختبار
اختتام
اختتمت
اختراع
اختراق
اخترقت
اخترنا
اختزال
اختصار
اختصاص
اختطاف
اختطفت
اختفاء
اختلاس
اختلاط
اختلاف
اختلاق
اختلال
اختلطت
اختلفت
اختناق
اختيار
اختيرت
اخصائي
اخلاقي
ادارات
ادارته
اداريا
ادارية
ادانته
ادعائه
ادوارد
ارادته
ارباحا
اربعين
ارتباط
ارتباك
ارتبطت
ارتجال
ارتداء
ارتداد
ارتسمت
ارتطام
ارتطمت
ارتفاع
ارتفعت
ارتكاب
ارتكاز
ارتكبت
ارتكبه
ارتكبو
ارتياح
ارتياد
ارسلان
ارسنال
ارهابي
ازالته
ازدادت
ازدحام
ازدراء
ازدهار
ازدواج
ازدياد
اسابيع
اساسيا
اساسية
اساليب
اسباني
استأثر
استأجر
استأنف
استؤنف
استباح
استباق
استبدل
استبشر
استبعد
استثار
استثمر
استجاب
استجوب
استحال
استحدث
استحضر
استحوذ
استخدم
استخرج
استخلص
استدرج
استدرك
استدعت
استدعى
استدعي
استديو
استرجع
استسلم
استشار
استشعر
استشهد
استضاف
استطاع
استطعت
استطعن
استطيع
استعاد
استعار
استعان
استعدت
استعرض
استعمل
استغرب
استغرق
استغلت
استغلو
استفاد
استفاق
استفدن
استفسر
استقال
استقبل
استقدم
استقرت
استقطب
استكمل
استلام
استلزم
استلمت
استلهم
استماع
استمال
استمتع
استمرت
استمعت
استناد
استنتج
استندت
استنفد
استنكر
استهدف
استهلت
استوجب
استوطن
استوعب
استوقف
استياء
استيقظ
اسطفان
اسكندر
اسلامي
اسلحته
اسماؤه
اشارات
اشتباك
اشتباه
اشتبكت
اشتداد
اشتراط
اشتراك
اشتراه
اشترطت
اشتركت
اشتريت
اشتعال
اشتعلت
اشتغال
اشتملت
اشتهرت
اشكنان
اصابات
اصابته
اصدرته
اصدقاء
اصطحاب
اصطدام
اصطدمت
اصطفاف
اصطياد
اصفهان
اصيبوا
اضافيا
اضافية
اضطراب
اضطرار
اضطررن
اضطهاد
اطلاقا
اطلقوا
اعتادت
اعتبار
اعتبرت
اعتبره
اعتبرو
اعتداء
اعتدال
اعتدنا
اعتذار
اعتذرت
اعتراض
اعتراف
اعترضت
اعترضو
اعترفت
اعترفو
اعتزاز
اعتزال
اعتزام
اعتصام
اعتقاد
اعتقال
اعتقدت
اعتقلت
اعتلاء
اعتماد
اعتمدت
اعتناق
اعتنقو
اعجابه
اعضائه
اعطائه
اعلامي
اعماله
اغتالت
اغتراب
اغتصاب
اغتنام
اغتيال
اغنيات
افتتاح
افتتحت
افتخار
افتراء
افتراض
افتعال
افتقاد
افتقار
افتقدت
افريقي
افغاني
اقامته
اقبالا
اقتباس
اقتتال
اقتحام
اقتحمت
اقتراب
اقتراح
اقتراض
اقتراع
اقتران
اقتربت
اقترحت
اقتسام
اقتصاد
اقتصار
اقتطاع
اقتلاع
اقتناء
اقتناص
اقتناع
اقتياد
اقراره
اقليمي
اكتئاب
اكتتاب
اكتساب
اكتساح
اكتسبت
اكتشاف
اكتشفت
اكتشفو
اكتظاظ
اكتمال
اكتملت
اكتوبر
اكسبرس
الآباء
الآبار
الآتية
الآثار
الآجال
الآجلة
الآخرة
الآداب
الآدمى
الآدمي
الآذان
الآراء
الآفات
الآفاق
الآلات
الآلاف
الآلام
الآلهة
الآلية
الآمال
الآمنة
الآونة
الآيات
الأئمة
الأبرز
الأبرش
الأبوة
الأبوي
الأبيض
الأثاث
الأثري
الأثير
الأجرة
الأجمل
الأجنة
الأجور
الأحبة
الأحدث
الأحمد
الأحمر
الأخرى
الأخري
الأخضر
الأخطر
الأخوة
الأخير
الأداء
الأدبي
الأدلة
الأدنى
الأدني
الأديب
الأذان
الأذين
الأربع
الأرجح
الأردن
الأرضي
الأرمن
الأزرق
الأزقة
الأزمة
الأزهر
الأساس
الأسبق
الأسرة
الأسرع
الأسرى
الأسري
الأسطح
الأسطر
الأسعد
الأسفل
الأسقف
الأسلم
الأسمر
الأسمى
الأسهل
الأسهم
الأسوأ
الأسود
الأسير
الأشرف
الأشعة
الأشقر
الأشهر
الأصعب
الأصغر
الأصفر
الأصلى
الأصلي
الأصول
الأصيل
الأضحى
الأضخم
الأضعف
الأطرش
الأطلس
الأطول
الأعرج
الأعظم
الأعلى
الأعلي
الأعمى
الأعنف
الأعوا
الأعين
الأغلب
الأغلى
الأفضل
الأفلا
الأقدم
الأقرب
الأقصر
الأقصى
الأقوى
الأكبر
الأكثر
الأكمل
الأكوا
الأكيد
الألسن
الألوف
الأليم
الأمام
الأمان
الأمثل
الأممي
الأمنى
الأمني
الأمور
الأموي
الأمية
الأمير
الأمين
الأنبا
الأنتر
الأنثى
الأنسب
الأنفس
الأنيق
الأهلى
الأهلي
الأوان
الأوجه
الأوحد
الأورو
الأوسط
الأوسع
الأوفر
الأولى
الأولي
الأيام
الأيدى
الأيدي
الأيسر
الأيمن
الإخاء
الإخوة
الإطاح
الإطار
الإلهي
الإمام
الإناث
الإنتر
الإياب
الإيدز
الاباء
الابنة
الابيض
الاثار
الاثني
الاجور
الاحسا
الاحمد
الاحمر
الاخرى
الاخضر
الاخوة
الاخوي
الاخير
الاداء
الادبي
الادلة
الادنى
الاديب
الاربع
الارجح
الاردن
الارصف
الارمن
الازرق
الازمة
الازهر
الاساء
الاساس
الاسبق
الاسرة
الاسطو
الاسقف
الاسمر
الاسهم
الاسوأ
الاسود
الاسير
الاشاد
الاشرف
الاشقر
الاصفر
الاصلي
الاصول
الاصيل
الاطاح
الاطار
الاطعم
الاعظم
الاعلى
الاغاث
الاغذي
الافاد
الافضل
الاقرب
الاقصى
الاقوى
الاكبر
الاكثر
الالاف
الالهي
الامام
الامان
الامثل
الامسي
الامني
الامور
الامير
الامين
الاناث
الانتر
الانسب
الاهلي
الاوان
الاوسط
الاولى
الاياب
الايام
الايدز
الايدي
الايسر
الايمن
البائد
البائس
البائع
البابا
الباجي
الباحة
الباحث
البادئ
البارد
البارز
البارع
الباري
الباسط
الباسك
الباسل
الباشا
الباطل
الباطن
الباعة
الباعث
الباقى
الباقي
الباكر
البالغ
الباني
الباهت
الباهر
البحار
البحتة
البحرى
البحري
البحوث
البخار
البدرى
البدري
البدني
البدوى
البدوي
البديع
البديل
البدين
البذور
البراد
البراز
البراق
البراك
البربر
البرتو
البرعى
البرقع
البركة
البرلس
البرنس
البروز
البريء
البرية
البريد
البريق
البريك
البزري
البساط
البسام
البسمة
البسيط
البشرة
البشرى
البشري
البشعة
البشير
البصرة
البصري
البصير
البطلة
البطيء
البطيخ
البطين
البعثة
البعوض
البعيد
البعير
البغيض
البقاء
البقاع
البقال
البقرة
البقشي
البقعة
البقية
البكاء
البلاء
البلاد
البلاط
البلاغ
البلاك
البلاي
البلدة
البلدي
البلوز
البلوغ
البناء
البنات
البندر
البنود
البنوك
البنية
البنين
البهجة
البوار
البوذي
البوكر
البولي
البيئة
البيئى
البيئي
البيار
البياض
البيال
البيان
البيدر
البيرة
البيرو
البيشي
البيعة
البيوت
التآمر
التأثر
التأخر
التأزم
التأكد
التألق
التأمل
التأني
التأهب
التأهل
التئام
التائب
التائه
التابع
التاجر
التاجي
التاسع
التافه
التالى
التالي
التامة
التايب
التباس
التبرع
التبني
التبول
التتار
التجار
التجدد
التجسس
التجلي
التجمع
التجول
التحاق
التحام
التحدث
التحدى
التحدي
التحرر
التحرش
التحرك
التحري
التحسن
التحضر
التحفظ
التحقق
التحكم
التحلل
التحلي
التحمل
التحوط
التحول
التحية
التحيز
التخبط
التخرج
التخصص
التخلف
التخلي
التخوف
التخيل
التدخل
التدرب
التدرج
التدفق
التدين
التذمر
التراب
التراث
التربة
الترجى
الترجي
التردد
التردي
الترشح
الترقب
الترقي
التركى
التركي
التروي
التريث
التزام
التزلج
التزمت
التستر
التسرب
التسرع
التسعة
التسلح
التسلط
التسلل
التسمم
التسوق
التسول
التشبث
التشدد
التشري
التشنج
التشيع
التشيك
التصاق
التصحر
التصدي
التصرف
التصور
التصوف
التضخم
التطرف
التطلع
التطور
التطوع
التظلم
التعثر
التعدد
التعدى
التعدي
التعرف
التعري
التعسف
التعصب
التعلق
التعلم
التعهد
التغلب
التغير
التفاح
التفاف
التفحي
التفرد
التفرغ
التفكك
التفوق
التقاء
التقاط
التقاه
التقدم
التقشف
التقطت
التقني
التقوا
التقيا
التقيت
التقيد
التكتل
التكتم
التكدس
التكهن
التكيف
التلال
التلاو
التلقي
التلوث
التليل
التماد
التماس
التمدد
التمرد
التمزق
التمسك
التمكن
التملك
التمني
التمور
التميز
التنبؤ
التنبه
التنحي
التنصت
التنفس
التنقل
التنكر
التنور
التنوع
التنين
التهاب
التهام
التهجم
التهرب
التهمة
التهور
التوأم
التواب
التوبة
التوتر
التوجه
التوحد
التورط
التوسط
التوسع
التوصل
التوغل
التوقع
التوقف
التيار
التيبت
التينة
الثائر
الثابت
الثالث
الثامن
الثانى
الثاني
الثبات
الثبيت
الثراء
الثروة
الثرية
الثعلب
الثغرة
الثقيل
الثلاث
الثلوج
الثمار
الثمين
الثناء
الثواب
الثوار
الثورة
الثورى
الثوري
الثياب
الجائر
الجائز
الجائع
الجابر
الجاحظ
الجادة
الجارف
الجارى
الجاري
الجاسر
الجافة
الجالس
الجامح
الجامد
الجامع
الجانب
الجانى
الجاني
الجاهز
الجاهل
الجبار
الجبال
الجبان
الجبلى
الجبلي
الجبهة
الجبير
الجبيل
الجبين
الجحيم
الجدار
الجدال
الجدول
الجدوى
الجدية
الجديد
الجدير
الجذري
الجذور
الجرأة
الجراج
الجراح
الجراد
الجرار
الجرحى
الجردي
الجرعة
الجروب
الجروح
الجرود
الجريء
الجريح
الجريد
الجريس
الجزئي
الجزاء
الجزار
الجزير
الجزيل
الجسار
الجسام
الجسدي
الجسور
الجسيم
الجعيد
الجفاف
الجلاء
الجلاد
الجلبي
الجلسة
الجلود
الجلوس
الجليد
الجليل
الجماع
الجمال
الجمرك
الجمعة
الجمعي
الجملة
الجمود
الجموع
الجميع
الجميل
الجناة
الجناح
الجندر
الجندل
الجندى
الجندي
الجنسى
الجنسي
الجنوب
الجنود
الجنون
الجنين
الجنيه
الجهات
الجهاد
الجهاز
الجهني
الجهود
الجهوي
الجواب
الجواد
الجوار
الجواز
الجوال
الجودة
الجودو
الجولة
الجولف
الجونة
الجوهر
الجوية
الجياع
الجيدة
الجيزة
الجينز
الجيني
الجيوب
الجيوش
الحائر
الحائز
الحائط
الحاجة
الحاجز
الحادة
الحادث
الحادي
الحارة
الحارث
الحارس
الحازم
الحاسب
الحاسم
الحاشد
الحاصل
الحاضر
الحاضن
الحافز
الحافظ
الحافل
الحاكم
الحالة
الحالى
الحالي
الحامد
الحامض
الحامل
الحامي
الحايك
الحبال
الحبشي
الحبكة
الحبوب
الحبيب
الحتمي
الحثيث
الحجاب
الحجاج
الحجار
الحجاز
الحجري
الحجيج
الحداد
الحدوث
الحدود
الحديث
الحديد
الحذاء
الحراب
الحراج
الحراس
الحراش
الحراك
الحرام
الحربش
الحربى
الحربي
الحرجة
الحرفي
الحركة
الحركي
الحروب
الحروف
الحروق
الحرية
الحرير
الحريص
الحريق
الحريم
الحزام
الحزبي
الحزين
الحساب
الحساس
الحساو
الحسرة
الحسكة
الحسنة
الحسني
الحسية
الحسين
الحشاش
الحشرة
الحشود
الحشيش
الحصاد
الحصار
الحصان
الحصبة
الحصري
الحصين
الحضان
الحضرى
الحضري
الحضور
الحضيض
الحطام
الحفار
الحفاظ
الحفرة
الحفلة
الحفيد
الحفيظ
الحقبة
الحقوق
الحقول
الحكام
الحكمة
الحكيم
الحلاق
الحلال
الحلبة
الحلبي
الحلقة
الحلقي
الحلوة
الحلول
الحلوى
الحليب
الحليف
الحليم
الحماد
الحمار
الحماس
الحمام
الحمرا
الحمصي
الحملة
الحمود
الحموي
الحمية
الحميد
الحمير
الحميم
الحنان
الحنون
الحنيف
الحنين
الحوار
الحواس
الحوثي
الحياء
الحياة
الحياد
الحيدر
الحيرة
الحيطة
الحيلة
الحيوى
الحيوي
الخائف
الخائن
الخاتم
الخادم
الخارج
الخارق
الخازن
الخاسر
الخاصة
الخاضع
الخاطئ
الخاطر
الخاطف
الخالد
الخالص
الخالق
الخالي
الخامس
الخانق
الخباز
الخبرة
الخبيث
الخبير
الختام
الختان
الخجول
الخداع
الخدمة
الخديو
الخراب
الخراش
الخراط
الخراف
الخردة
الخردل
الخروب
الخروج
الخروف
الخروق
الخريج
الخريف
الخزان
الخشاب
الخشبة
الخشية
الخصبة
الخصوص
الخصوم
الخصية
الخضار
الخضري
الخضوع
الخضير
الخطاب
الخطاط
الخطبة
الخطرة
الخطوة
الخطوط
الخطيب
الخطية
الخطير
الخفاء
الخفية
الخفيف
الخلاص
الخلاف
الخلاق
الخلفي
الخلوة
الخلود
الخلوي
الخلية
الخليج
الخليط
الخليف
الخليل
الخمسة
الخمور
الخمول
الخمير
الخميس
الخناق
الخندق
الخوري
الخولى
الخولي
الخونة
الخيار
الخياط
الخيال
الخيام
الخيبة
الخيرة
الخيري
الخيمة
الخيوط
الخيول
الدؤوب
الدائر
الدائم
الدائن
الداخل
الدارس
الداعم
الداعي
الدافئ
الدافع
الداكن
الدالة
الدالى
الدالي
الدامي
الداود
الدايم
الدباغ
الدبوس
الدجاج
الدجيل
الدخان
الدخول
الدخيل
الدراج
الدرجة
الدرزي
الدرعي
الدروب
الدروز
الدروس
الدروع
الدسمة
الدعاء
الدعاة
الدعوة
الدعوى
الدعوي
الدعيع
الدفاع
الدفتر
الدفعة
الدقيق
الدلال
الدلتا
الدليل
الدماء
الدمار
الدماغ
الدمام
الدموع
الدموي
الدنيا
الدهشة
الدهون
الدواء
الدوار
الدواس
الدواع
الدوام
الدوحة
الدورة
الدورى
الدوري
الدولة
الدولى
الدولي
الدوما
الدوير
الدويل
الديار
الديزل
الدينى
الديني
الديوك
الديون
الذئاب
الذاتى
الذاتي
الذباب
الذراع
الذروة
الذرية
الذريع
الذكاء
الذكرى
الذكور
الذكية
الذنوب
الذهاب
الذهبى
الذهبي
الذهني
الذهول
الرءوف
الرؤوس
الرؤوف
الرؤيا
الرؤية
الرئوي
الرئيس
الرائد
الرائع
الرابح
الرابط
الرابع
الراتب
الراجح
الراجل
الراحة
الراحل
الرادع
الرازق
الرازي
الراسخ
الراسي
الراشد
الراضي
الراعي
الراغب
الرافض
الراقص
الراقي
الراكب
الرالي
الرامي
الراهب
الراهن
الراوي
الراية
الرباط
الربيش
الربيع
الرجاء
الرجال
الرجعي
الرجوب
الرجوع
الرجيب
الرحاب
الرحال
الرحلة
الرحمة
الرحمن
الرحيل
الرحيم
الرخاء
الرخام
الرخصة
الرخيص
الرداد
الردود
الرديف
الرزاق
الرسام
الرسمى
الرسمي
الرسوب
الرسول
الرسوم
الرشوة
الرشيد
الرصاص
الرصيد
الرصيف
الرصين
الرضوخ
الرضيع
الرطبة
الرعاة
الرعية
الرعيل
الرغبة
الرغيف
الرفاع
الرفاق
الرفاه
الرفيع
الرفيق
الرقاب
الرقبة
الرقعة
الرقمي
الرقيب
الرقيق
الركاب
الركام
الركبة
الركوب
الركود
الركيز
الرماد
الرمال
الرمان
الرمثا
الرمزي
الرملة
الرموز
الرميح
الرهان
الرهبة
الرهيب
الرواة
الرواج
الرواد
الرواس
الرواق
الروحي
الروسى
الروسي
الروشة
الروضا
الروضة
الروعة
الرومي
الرويس
الرويل
الرياح
الرياض
الريال
الريان
الريبة
الريبو
الريجي
الريشة
الريفي
الزئبق
الزائد
الزائر
الزائف
الزاحف
الزاخر
الزامل
الزاهد
الزاهر
الزايد
الزبدة
الزبون
الزبير
الزجاج
الزحام
الزحمة
الزعبي
الزعتر
الزعيم
الزغبي
الزفاف
الزكاة
الزكية
الزلزل
الزمان
الزمني
الزميل
الزهار
الزهرة
الزهور
الزهير
الزواج
الزوار
الزوال
الزوجة
الزوجي
الزورق
الزيات
الزيدي
الزينة
الزيوت
السؤال
السائح
السائد
السائر
السائق
السائل
السابع
السابق
الساتر
الساحة
الساحر
الساحق
الساحل
الساخر
الساخن
السادة
السادس
الساذج
السارق
الساسة
الساطع
الساعة
الساعي
السافر
الساقط
الساكن
السالب
السالف
السالم
السامة
السامر
السامي
الساهر
الساير
السباب
السباح
السباق
السبعة
السبكى
السبكي
السبيل
الستار
الستين
السجاد
السجال
السجون
السجين
السحاب
السحري
السحور
السحيق
السحيم
السخنة
السداد
السدود
السديد
السراب
السراج
السراح
السراي
السردي
السرعة
السرقة
السركا
السرور
السرية
السرير
السريع
السطوح
السطور
السعدي
السعري
السعود
السعيد
السفاح
السفار
السفلى
السفلي
السفير
السقوط
السكان
السكتة
السكرى
السكري
السكني
السكوت
السكون
السكين
السلاح
السلال
السلام
السلبى
السلبي
السلطة
السلعة
السلفى
السلفي
السلمى
السلمي
السلوك
السلوم
السليم
السماء
السمات
السماح
السماد
السمار
السماع
السماك
السمان
السمحة
السمسم
السمعة
السمعي
السمنة
السموم
السميط
السميع
السنوى
السنوي
السنية
السنين
السهرة
السهلة
السهلي
السهول
السهيل
السواء
السواح
السواد
السوبر
السورى
السوري
السويد
السويس
السيئة
السياب
السياج
السياح
السيار
السياق
السيدة
السيرة
السيرك
السيسى
السيسي
السيوف
السيول
الشؤون
الشئون
الشائع
الشائك
الشابة
الشابي
الشاذة
الشارع
الشاسع
الشاشة
الشاطئ
الشاطر
الشاعر
الشاغر
الشاغل
الشافى
الشافي
الشاقة
الشاكي
الشامخ
الشامس
الشامل
الشامي
الشاهد
الشاوي
الشايب
الشباب
الشباك
الشبان
الشبكة
الشبهة
الشتاء
الشتات
الشتوي
الشثري
الشجار
الشجاع
الشجرة
الشحات
الشحنة
الشخصى
الشخصي
الشداد
الشديد
الشذوذ
الشراء
الشراب
الشرار
الشراع
الشرسة
الشرطة
الشرطي
الشرعى
الشرعي
الشرفي
الشرقي
الشركة
الشرور
الشروط
الشروع
الشروق
الشريد
الشرير
الشريط
الشريع
الشريف
الشريك
الشعاب
الشعار
الشعبى
الشعبي
الشعري
الشعلا
الشعلة
الشعوب
الشعور
الشعيب
الشعير
الشغور
الشفاء
الشفاف
الشفاه
الشفهي
الشفوي
الشقاق
الشقيف
الشقيق
الشكوك
الشكوى
الشماع
الشمال
الشمري
الشمسي
الشموع
الشهاب
الشهال
الشهرة
الشهري
الشهود
الشهور
الشهية
الشهيد
الشهير
الشوبك
الشورى
الشوري
الشوكي
الشويخ
الشياح
الشيخة
الشيشة
الشيعة
الشيعى
الشيعي
الشيوخ
الصائب
الصائغ
الصائم
الصابر
الصادر
الصادق
الصارخ
الصارم
الصاعد
الصافي
الصالة
الصالح
الصامت
الصامد
الصانع
الصاوى
الصاوي
الصايغ
الصباح
الصباغ
الصبان
الصبغة
الصبية
الصبيح
الصحاف
الصحفى
الصحفي
الصحوة
الصحية
الصحيح
الصخرة
الصخري
الصخور
الصخير
الصداع
الصدام
الصدري
الصدفة
الصدمة
الصدور
الصديق
الصراخ
الصراع
الصراف
الصربي
الصرخة
الصريح
الصعاب
الصعبة
الصعود
الصعيد
الصغار
الصغرى
الصغير
الصفاء
الصفات
الصفار
الصفحة
الصفدي
الصفقة
الصفوف
الصفيح
الصقور
الصقيع
الصكوك
الصلاة
الصلات
الصلبة
الصليب
الصماء
الصمام
الصمود
الصميم
الصواب
الصوتي
الصورة
الصوفي
الصويا
الصياد
الصيام
الصيرف
الصيغة
الصيفي
الصينى
الصيني
الضئيل
الضائع
الضابط
الضارة
الضاغط
الضالة
الضالع
الضامة
الضامن
الضاهر
الضباب
الضباط
الضبعة
الضجيج
الضحية
الضخمة
الضربة
الضرور
الضريح
الضعيف
الضغوط
الضلال
الضمان
الضمني
الضمير
الضنية
الضوئي
الضياع
الضيعة
الضيقة
الضيوف
الطائر
الطائش
الطائف
الطائي
الطابع
الطابق
الطارئ
الطازج
الطاعة
الطاعن
الطاغي
الطاقة
الطاقم
الطالب
الطالع
الطامة
الطامح
الطاهر
الطاير
الطباخ
الطباع
الطبعة
الطبقة
الطبقي
الطبول
الطبيب
الطبية
الطحين
الطراز
الطرود
الطريف
الطريق
الطعام
الطعون
الطغاة
الطفرة
الطفلة
الطفيف
الطفيل
الطقوس
الطلاء
الطلاب
الطلاق
الطلبة
الطموح
الطنيج
الطهاة
الطواف
الطوال
الطوعي
الطوير
الطويل
الطيار
الطيبة
الطيور
الظالم
الظاهر
الظروف
الظريف
الظفرة
الظفير
الظلال
الظلام
الظهور
الظهير
العائد
العائق
العائل
العائم
العابد
العابر
العاجز
العاجل
العاجي
العادة
العادل
العادم
العادى
العادي
العارض
العارف
العازف
العازل
العاشر
العاشق
العاصي
العاطل
العاطى
العاقل
العالم
العالى
العالي
العامة
العامل
العاهل
العايد
العباد
العبار
العباس
العبدل
العبرة
العبري
العبسي
العبوة
العبود
العبور
العبيد
العتاد
العتبة
العتمة
العتيب
العتيد
العتيق
العثور
العثيم
العجلة
العجمى
العجمي
العجوز
العجول
العجيب
العجيل
العجين
العداء
العداد
العدلي
العدوى
العديد
العذاب
العذبة
العراء
العراب
العراد
العراق
العربى
العربي
العرقي
العروس
العروض
العريس
العريش
العريض
العريف
العريق
العرين
العزاء
العزاب
العزلة
العزوف
العزيز
العساف
العسكر
العسير
العشاء
العشاق
العشرة
العشرى
العصار
العصبي
العصور
العصير
العصيم
العضلة
العضلي
العضوي
العطاء
العطار
العطاس
العطلة
العطور
العطية
العطيش
العظام
العظمة
العظمى
العظمي
العظيم
العقاب
العقاد
العقار
العقبة
العقدة
العقرب
العقلي
العقود
العقول
العقيد
العقير
العقيق
العقيل
العقيم
العلاء
العلاج
العلمى
العلمي
العلني
العلوم
العلوي
العليا
العليم
العماد
العمار
العمال
العمدة
العمرة
العمري
العملة
العملي
العمود
العموم
العميد
العمير
العميق
العميل
العميم
العناء
العناد
العنان
العنبر
العنتر
العنزي
العنصر
العنيد
العنيف
العهود
العواد
العوام
العودة
العوضي
العوني
العويد
العوير
العويس
العيار
العياط
العيال
العيان
العيسى
العينة
العينى
العيوب
العيون
الغائب
الغابة
الغادر
الغارة
الغارق
الغاشم
الغاصب
الغاضب
الغالب
الغالي
الغامر
الغامض
الغانم
الغاني
الغاية
الغباء
الغبار
الغداء
الغدير
الغذاء
الغراء
الغراب
الغرام
الغربة
الغربى
الغربي
الغرفة
الغروب
الغرور
الغريب
الغرير
الغريم
الغزاة
الغزال
الغزير
الغسيل
الغطاء
الغفار
الغفور
الغلاء
الغلاف
الغلال
الغلبة
الغموض
الغناء
الغنام
الغنية
الغنيم
الغواص
الغوطة
الغولف
الغياب
الغيار
الغيرة
الغيني
الغيوم
الفؤاد
الفئات
الفائت
الفائز
الفائض
الفائق
الفاتح
الفاتن
الفاحش
الفاخر
الفادح
الفارس
الفارغ
الفارق
الفاسد
الفاسي
الفاشل
الفاشي
الفاصل
الفاضح
الفاضل
الفاعل
الفاقد
الفاكس
الفالح
الفايد
الفايز
الفتاة
الفتات
الفتاح
الفتاك
الفترة
الفتنة
الفتوة
الفتوح
الفتوى
الفتية
الفجوة
الفحوص
الفخار
الفخري
الفخمة
الفداء
الفدية
الفرات
الفرار
الفراش
الفراغ
الفراق
الفرحة
الفردى
الفردي
الفرصة
الفرعي
الفرقة
الفرنك
الفروع
الفروق
الفريج
الفريح
الفريد
الفريق
الفساد
الفسيح
الفصام
الفصحى
الفصول
الفصيح
الفصيل
الفضاء
الفضال
الفضلي
الفضول
الفضية
الفضيل
الفطور
الفظيع
الفعال
الفعلي
الفقار
الفقرة
الفقري
الفقيد
الفقير
الفقيه
الفكرة
الفكري
الفلاح
الفلاش
الفلفل
الفلكي
الفلور
الفلوس
الفلول
الفناء
الفنار
الفنان
الفندق
الفنون
الفنية
الفهري
الفهود
الفهيد
الفوار
الفورى
الفوري
الفوضى
الفوضي
الفوقا
الفياض
الفيتو
الفيزا
الفيصل
الفيفا
الفيفي
الفيلم
الفيول
الفيوم
القائد
القائل
القائم
القابع
القابل
القاتل
القادة
القادر
القادم
القارئ
القارب
القارة
القارس
القاري
القاسم
القاسي
القاصر
القاضى
القاضي
القاطع
القاطن
القاعة
القالب
القامة
القبار
القبطى
القبطي
القبلة
القبلى
القبلي
القبور
القبول
القبيح
القبيل
القتال
القتلة
القتلى
القتيل
القداس
القدرة
القدوة
القدوس
القدوم
القدير
القديس
القديم
القذرة
القرآن
القراء
القرار
القران
القربى
القربي
القرشي
القرعة
القرني
القرود
القروض
القرون
القروي
القريب
القرية
القرين
القسام
القسري
القسوة
القشرة
القصار
القصاص
القصبة
القصبي
القصور
القصوى
القصيد
القصير
القصيم
القضاء
القضاة
القضيب
القضية
القطار
القطاع
القطان
القطرى
القطري
القطعة
القطيع
القطيف
القعدة
القعود
القعيد
القلاع
القلاف
القلعة
القلوب
القليل
القمار
القماش
القميص
القناة
القناص
القناع
القنصل
القنفذ
القهوة
القوات
القوام
القومى
القومي
القوية
القويم
القياد
القياس
القيام
القيسي
القيصر
القيمة
القيود
القيوي
الكآبة
الكؤوس
الكئيب
الكائن
الكابل
الكاتب
الكاحل
الكادر
الكاذب
الكارت
الكاسح
الكاشف
الكافر
الكافى
الكافي
الكامل
الكامن
الكاهن
الكبار
الكبرى
الكبري
الكبير
الكتاب
الكتان
الكتلة
الكتيب
الكثير
الكثيف
الكحول
الكرات
الكراز
الكرام
الكردي
الكرسى
الكرسي
الكرنك
الكروم
الكروى
الكروي
الكريم
الكساد
الكسور
الكسوف
الكشاف
الكشفي
الكشوف
الكعبة
الكعبي
الكفاح
الكفار
الكفيف
الكفيل
الكلاب
الكلام
الكلفة
الكلمة
الكلور
الكلوى
الكلوي
الكليب
الكلية
الكمال
الكمان
الكمية
الكمين
الكندر
الكندى
الكندي
الكنسي
الكنوز
الكنيس
الكهرو
الكهنة
الكهوف
الكوبي
الكورة
الكورى
الكوري
الكوفة
الكوفي
الكوكب
الكومب
الكوني
الكويت
الكيان
الكيلو
الكيني
اللؤلؤ
اللائق
اللاتي
اللاجئ
اللاحق
اللاذع
اللازم
اللاعب
اللافت
اللامع
اللباس
اللبان
اللثام
اللجان
اللجنة
اللجوء
اللحاق
اللحام
اللحظة
اللحمة
اللحوم
اللدود
اللذيذ
اللذين
اللزوم
اللسان
اللصوص
اللطيف
اللعاب
اللعبة
اللعين
اللغات
اللغوي
اللفظي
اللقاء
اللقاح
اللقطة
اللقيس
اللهجة
اللواء
اللوات
اللوبي
اللوحة
اللوحي
اللورد
اللوفر
اللياق
الليبى
الليبي
الليثى
الليجا
الليرة
الليزر
الليلة
الليلي
الليمو
المآذن
المآسي
المأزق
المأوى
المؤبد
المؤثر
المؤجر
المؤجل
المؤدى
المؤدي
المؤذن
المؤرخ
المؤسس
المؤسف
المؤشر
المؤقت
المؤكد
المؤلف
المؤلم
المؤمل
المؤمن
المؤهل
المؤيد
المئات
المائة
المائل
المائى
المائي
الماجد
المادة
المادى
المادي
المارة
المارد
المارك
الماضى
الماضي
الماطر
الماعز
الماكر
المالح
المالك
المالى
المالي
المانع
الماني
الماهر
المباح
المبار
المبدأ
المبدئ
المبدع
المبرة
المبرح
المبرد
المبرر
المبرز
المبرم
المبسط
المبشر
المبكر
المبلغ
المبنى
المبني
المبهر
المبيت
المبيض
المبيع
المبين
المتاح
المتبع
المتجر
المتجه
المتحد
المتحف
المتخذ
المترو
المتصل
المتعب
المتعة
المتفق
المتقن
المتلو
المتهم
المتوج
المثال
المثبت
المثقف
المثلث
المثلج
المثلى
المثمر
المثنى
المثير
المجاز
المجال
المجرم
المجرى
المجري
المجفف
المجلة
المجلد
المجلس
المجمد
المجمع
المجمل
المجند
المجني
المجهر
المجيء
المجيد
المحار
المحاط
المحال
المحبة
المحبط
المحتف
المحتل
المحدث
المحدد
المحرج
المحرر
المحرز
المحرض
المحرق
المحرك
المحرم
المحزن
المحسن
المحصن
المحضر
المحطة
المحفز
المحفل
المحقة
المحقق
المحكم
المحلة
المحلل
المحلى
المحلي
المحمد
المحنة
المحنك
المحور
المحول
المحير
المحيس
المحيط
المخاض
المخبر
المخبز
المختص
المختل
المخجل
المخدر
المخرج
المخزن
المخزي
المخصب
المخصص
المخطئ
المخطط
المخفر
المخفض
المخلص
المخول
المخيب
المخيف
المخيم
المدار
المدان
المداو
المدبر
المدجج
المدخل
المدخن
المدرب
المدرج
المدرس
المدعم
المدعو
المدعى
المدعي
المدفع
المدقع
المدقق
المدلل
المدمر
المدمن
المدنى
المدني
المدهش
المدون
المدوي
المديح
المديد
المدير
المدين
المذاع
المذنب
المذهب
المذهل
المذيع
المرآة
المرأة
المرئي
المرات
المراد
المراس
المران
المربع
المربي
المرتب
المرتد
المرجح
المرجع
المرجو
المرخص
المردة
المرسل
المرسى
المرشح
المرشد
المرصد
المرضى
المرضي
المرعب
المرفأ
المرفق
المركب
المركز
المرمى
المرمي
المرنة
المرهف
المروج
المرور
المروع
المريب
المريح
المريخ
المرير
المريض
المزاج
المزاح
المزاد
المزار
المزري
المزعج
المزمع
المزمن
المزود
المزور
المزيج
المزيد
المزيف
المزين
المساء
المسار
المسال
المسام
المسبا
المسبب
المسبح
المسبق
المسجد
المسجل
المسدس
المسرب
المسرح
المسطح
المسعد
المسعف
المسعى
المسكر
المسكن
المسكو
المسلح
المسلخ
المسلط
المسلك
المسلم
المسما
المسند
المسوق
المسيء
المسيح
المسير
المسيل
المشاة
المشار
المشاع
المشجع
المشدد
المشرع
المشرف
المشرق
المشعة
المشعل
المشغل
المشكل
المشكو
المشهد
المشوي
المشير
المصاب
المصحف
المصدر
المصرح
المصرف
المصرى
المصري
المصطف
المصعد
المصغر
المصلح
المصمم
المصنع
المصنف
المصور
المصير
المصيف
المضاد
المضحك
المضرب
المضلل
المضني
المضيف
المضيق
المطار
المطاط
المطاف
المطبخ
المطبق
المطرب
المطرد
المطعم
المطلب
المطلة
المطلع
المطلق
المطمر
المطور
المطوع
المطول
المطير
المظفر
المظلة
المظلم
المظلي
المظهر
المعاد
المعار
المعاش
المعاص
المعاق
المعبد
المعبر
المعجب
المعجل
المعجم
المعدة
المعدل
المعدن
المعذب
المعرض
المعسر
المعشر
المعطل
المعطى
المعظم
المعقد
المعقل
المعلا
المعلق
المعلم
المعلن
المعمر
المعمل
المعمو
المعنى
المعني
المعهد
المعوش
المعوق
المعول
المعيب
المعيق
المعيل
المعين
المغاز
المغذي
المغرب
المغرد
المغلف
المغلق
المغلو
المغني
المغول
المغيب
المغير
المفتش
المفتى
المفتي
المفجع
المفدى
المفرج
المفرط
المفرق
المفسر
المفصل
المفضل
المفعم
المفكر
المفلح
المفوض
المفيد
المقار
المقاس
المقال
المقام
المقبل
المقدر
المقدس
المقدم
المقرب
المقرر
المقصد
المقطع
المقطم
المقعد
المقلب
المقنع
المقنن
المقهو
المقهى
المقيد
المقيم
المكان
المكبر
المكتب
المكثف
المكرر
المكرم
المكسب
المكعب
المكلا
المكلف
المكمل
المكوك
المكون
الملاء
الملاح
الملاذ
الملاك
الملتح
الملجأ
الملحة
الملحق
الملحم
الملحن
الملصق
الملعب
الملقا
الملقب
الملكة
الملكى
الملكي
الملهم
الملوث
الملوك
الملون
المليئ
المليح
المليك
الممتد
الممثل
الممرض
الممكن
الممول
المميز
المناخ
المنار
المناط
المنال
المنبر
المنبع
المنبه
المنتج
المنجز
المنجم
المنحة
المنحل
المنحى
المندب
المندي
المنذر
المنزل
المنزه
المنسق
المنشأ
المنشا
المنشد
المنشط
المنشق
المنصب
المنصة
المنصف
المنضم
المنطق
المنظر
المنظم
المنعم
المنفذ
المنفى
المنفي
المنقذ
المنكر
المنهج
المنهك
المنوط
المنوم
المنوي
المنيا
المنية
المنير
المنيع
المنيف
المهام
المهبل
المهتم
المهجر
المهدد
المهدى
المهدي
المهذب
المهرب
المهرة
المهلة
المهمة
المهنة
المهنى
المهني
المهيد
المهين
المواد
الموتى
الموجة
الموجز
الموجه
الموحد
المودة
المودع
المورد
الموزع
الموسع
الموسم
الموسى
الموصل
الموضة
الموضح
الموضع
الموطن
الموظف
الموعد
الموفد
الموفق
الموقت
الموقر
الموقع
الموقف
الموكب
الموكل
المولد
المولى
المويه
المياة
المياه
الميتة
الميري
الميزة
الميسر
الميول
النائب
النائم
النابض
النابع
الناتج
الناتو
الناجح
الناجم
الناجي
الناخب
النادر
النادى
النادي
النازح
النازي
الناشئ
الناشر
الناشط
الناصر
الناصع
الناضج
الناطق
الناظر
الناعم
النافذ
النافع
الناقد
الناقل
النامي
النانو
النبات
النبتة
النبرة
النبطي
النبوة
النبوى
النبوي
النبيذ
النبيل
النتاج
النجاة
النجاح
النجار
النجدة
النجدي
النجمة
النجوم
النحات
النحاس
النحيل
النخاع
النخبة
النخلة
النخيل
النداء
الندوة
الندية
النروج
النزاع
النزعة
النزهة
النزوح
النزول
النزيف
النزيل
النزيه
النساء
النسبة
النسبي
النسخة
النسوة
النسور
النسوي
النسيج
النسيم
النشأة
النشاط
النشرة
النشطة
النشوة
النشيد
النشيط
النصاب
النصار
النصرة
النصوص
النصيب
النصية
النضال
النطاق
النظام
النظرة
النظري
النظير
النظيف
النعاس
النعام
النعمة
النعير
النعيم
النفاث
النفاذ
النفاق
النفسى
النفسي
النفطي
النفوذ
النفوس
النفيس
النقاب
النقاد
النقاش
النقاط
النقال
النقدي
النقطة
النقود
النقيب
النقية
النقيض
النكات
النكبة
النكتة
النكسة
النمسا
النهار
النهدي
النهضة
النهوض
النواب
النواة
النوبة
النوبى
النوبي
النوري
النوعي
النووى
النووي
النيات
النيجر
الهائل
الهابط
الهاتف
الهاجس
الهادئ
الهادف
الهادى
الهادي
الهارب
الهاشم
الهالك
الهامة
الهامش
الهامل
الهاون
الهبات
الهبوط
الهتاف
الهجان
الهجرة
الهجري
الهجمة
الهجوم
الهجين
الهداف
الهدنة
الهدوء
الهدية
الهرمل
الهروب
الهزات
الهزاع
الهزيل
الهشيم
الهضبة
الهضمى
الهضمي
الهلاك
الهلال
الهمجي
الهموم
الهندى
الهندي
الهنود
الهواء
الهواة
الهوية
الهيئة
الهيبة
الهيكل
الوئام
الواثق
الواجب
الواحد
الوادع
الوادى
الوادي
الوارد
الوازع
الواسع
الواصل
الواضح
الواعد
الواعي
الوافد
الوافي
الواقع
الواقف
الواقي
الوالد
الوالي
الوباء
الوثبة
الوثوق
الوثيق
الوجبة
الوجهة
الوجود
الوجوه
الوحدة
الوحشي
الوحوش
الوحيد
الوداع
الودود
الودية
الوراء
الوراق
الورثة
الوردي
الورشة
الورقة
الورود
الوريث
الوريد
الوزان
الوزير
الوسام
الوسطى
الوسطي
الوسيط
الوسيم
الوشيك
الوصول
الوصية
الوصيف
الوضوء
الوضوح
الوطنى
الوطني
الوعاء
الوعرة
الوعود
الوفاء
الوفاة
الوفاض
الوفاق
الوفرة
الوفود
الوفير
الوقفة
الوقود
الوقوع
الوقوف
الوكرة
الوكيل
الولاء
الولوج
الوليد
الونسو
الوهاب
الوهلة
الوهمي
الوهيب
اليائس
اليافع
اليامي
اليتيم
اليخوت
اليدوي
اليدين
اليرزة
اليزيد
اليسار
اليسرى
اليسير
اليقظة
اليقين
اليمنى
اليمني
اليمين
اليهود
اليوان
اليورو
اليوري
اليوسف
اليومي
امامنا
امتثال
امتحان
امتداد
امتصاص
امتعاض
امتلأت
امتلاء
امتلاك
امتناع
امتنعت
امتياز
امريكا
امريكي
امكاني
اميركا
اميركي
انابيب
انبعاث
انتابت
انتباه
انتحار
انتحال
انتخاب
انتخبت
انتداب
انتزاع
انتزعت
انتساب
انتشار
انتشال
انتشرت
انتصار
انتصرت
انتظار
انتظام
انتظرت
انتعاش
انتفاخ
انتقاء
انتقاد
انتقال
انتقام
انتقدت
انتقلت
انتماء
انتهاء
انتهاج
انتهاز
انتهاك
انتهكت
انتهيت
انجازا
انجازه
انجلوس
انجليس
انحدار
انحراف
انحسار
انحصرت
انحياز
انخراط
انخفاض
انخفضت
اندفاع
اندلاع
اندلعت
اندماج
انزعاج
انزلاق
انساني
انسجام
انسحاب
انسحبت
انسداد
انسياب
انشاؤه
انشطته
انشغال
انشقاق
انصراف
انضباط
انضمام
انطباع
انطلاق
انطلقت
انطوان
انطوني
انظروا
انعدام
انعقاد
انعقدت
انعكاس
انفاسه
انفتاح
انفجار
انفجرت
انفراج
انفراد
انفردت
انفسنا
انفسهم
انفصال
انفصام
انفصلت
انفعال
انفلات
انقسام
انقسمت
انقضاء
انقطاع
انقطعت
انقلاب
انقلبت
انكسار
انكشاف
انكماش
انهارت
انهالت
انهيار
اهتزاز
اهتمام
اهدافه
اهميته
اوباما
اوردته
اوروبا
اوروبي
اولمبي
اولمرت
اولياء
ايجابا
ايجابي
ايدينا
ايديهم
ايراني
ايرباص
ايطالي
ايمانا
بآرائه
بآليات
بأبحاث
بأحداث
بأحكام
بأحوال
بأخبار
بأخلاق
بأدائه
بأدوات
بأدوار
بأرباح
بأربعة
بأرقام
بأرواح
بأسباب
بأسبوع
بأسرها
بأسعار
بأسلحة
بأسلوب
بأسماء
بأسواق
بأسوان
بأسيوط
بأشجار
بأشخاص
بأشكال
بأصابع
بأصحاب
بأصوات
بأضرار
بأطراف
بأطفال
بأعداد
بأعراض
بأعضاء
بأعمال
بأعياد
بأغنية
بأفراد
بأفعال
بأفكار
بأفلام
بأقوال
بأكمله
بألعاب
بألفاظ
بألوان
بأماكن
بأمانة
بأمراض
بأموال
بأنواع
بأهداف
بأهمية
بأوامر
بأوراق
بأوضاع
بأوقات
بإبراز
بإبعاد
بإبلاغ
بإتقان
بإتمام
بإثبات
بإجبار
بإجراء
بإجماع
بإحالة
بإحداث
بإحراز
بإحراق
بإحضار
بإحكام
بإحياء
بإخراج
بإخلاء
بإخلاص
بإدارة
بإدخال
بإدراج
بإرادة
بإرسال
بإزالة
بإسقاط
بإسناد
بإشراف
بإشراك
بإشعال
بإصابة
بإصدار
بإصرار
بإصلاح
بإضافة
بإطلاق
بإظهار
بإعجاب
بإعداد
بإعدام
بإعطاء
بإعفاء
بإعلان
بإغلاق
بإقامة
بإقبال
بإقرار
بإقفال
بإقليم
بإقناع
بإلحاح
بإلزام
بإلغاء
بإمكان
بإنتاج
بإنجاز
بإنزال
بإنشاء
بإنقاذ
بإهدار
بإيجاد
بإيداع
بإيران
بإيصال
بإيقاع
بإيقاف
باتباع
باتجاه
باتحاد
باتخاذ
باتريس
باتريك
باتصال
باتفاق
باتمان
باتهام
باجراء
باحثون
باحثين
باحراز
باخراج
بادخال
بادعاء
بارزين
بارسال
باريبا
باريرا
بازالة
باستاد
باستور
باستيا
باسعار
باسقاط
باسكال
باسلوب
باسمها
باشراف
باشراك
باصدار
باصلاح
باطراد
باطلاق
باعداد
باعلان
باعمال
باغلاق
باقامة
باقرار
باكمله
باكيتا
بالآتي
بالآخر
بالأدب
بالأرض
بالأصل
بالألم
بالأمر
بالأمس
بالأمل
بالأمم
بالأمن
بالأول
بالاحر
بالاست
بالاسم
بالامر
بالامس
بالامن
بالباح
بالبحث
بالبحر
بالبدء
بالبشر
بالبلد
بالبنك
بالبني
بالبيت
بالبيع
بالتعب
بالثأر
بالثرو
بالثقة
بالجبل
بالجسم
بالجلد
بالجنس
بالجهة
بالجوع
بالجيش
بالحاج
بالحبس
بالحدث
بالحرب
بالحرس
بالحرص
بالحرف
بالحرم
بالحزب
بالحزن
بالحفر
بالحفل
بالحكم
بالخبر
بالخجل
بالخطأ
بالخطر
بالخوف
بالخير
بالدار
بالدعم
بالدفع
بالدقى
بالدور
بالدول
بالدين
بالذات
بالذكر
بالذنب
بالذهب
بالرأس
بالرأي
بالربع
بالربو
بالرجل
بالرسم
بالرضا
بالرغم
بالرفض
بالرقم
بالروح
بالزمن
بالزيت
بالستي
بالسجن
بالسعر
بالسعي
بالسفر
بالسكر
بالسلب
بالسلع
بالسنة
بالسوق
بالسيد
بالسير
بالسيف
بالشأن
بالشخص
بالشرق
بالشعب
بالشعر
بالشكر
بالشكل
بالشلل
بالشمع
بالشهر
بالشوط
بالشيخ
بالصبر
بالصحة
بالصحف
بالصدر
بالصرف
بالصمت
بالصوت
بالصور
بالصيغ
بالصين
بالضبط
بالضرب
بالضعف
بالضغط
بالضفة
بالطبع
بالطرف
بالطرق
بالطعن
بالطفل
بالطلب
بالظلم
بالعام
بالعجز
بالعدد
بالعدل
بالعدو
بالعرب
بالعرض
بالعصا
بالعصي
بالعفو
بالعقد
بالعقل
بالعكس
بالعلم
بالعمر
بالعمل
بالعنف
بالعيد
بالعيش
بالعين
بالغاز
بالغرب
بالغرض
بالغضب
بالفتر
بالفخر
بالفرح
بالفرص
بالفشل
بالفصل
بالفعل
بالفقر
بالفكر
بالفوز
بالقبض
بالقتل
بالقدر
بالقدس
بالقدم
بالقرب
بالقرى
بالقسم
بالقصر
بالقصف
بالقطع
بالقفز
بالقلب
بالقلق
بالقلم
بالقوة
بالقول
بالقوى
بالقيم
بالكأس
بالكاد
بالكتب
بالكذب
بالكرة
بالكشف
باللعب
باللغة
باللقب
باللمس
باللهج
باللوم
باللون
بالليل
بالمئة
بالماء
بالمال
بالمثل
بالمحل
بالمدن
بالمرة
بالمرض
بالمطر
بالمقر
بالملف
بالملك
بالملل
بالموت
بالنار
بالناس
بالنجم
بالنسب
بالنصب
بالنصر
بالنصف
بالنظر
بالنفس
بالنفط
بالنفع
بالنفي
بالنقد
بالنقص
بالنقض
بالنقل
بالنمو
بالهدف
بالهرم
بالهند
بالوجه
بالورق
بالوسط
بالوضع
بالوطن
بالوعي
بالوفد
بالوقت
بالوقف
باليأس
باليمن
باليوم
باماكو
بامرأة
بامكان
بانتاج
بانجاز
بانشاء
بانكوك
بانياس
بانيتا
بايقاف
بباريس
ببراءة
ببراعة
ببرامج
ببساطة
ببطلان
ببطولة
ببعضها
ببغداد
ببنائه
ببيروت
بتأثير
بتأجير
بتأجيل
بتأخير
بتأسيس
بتأكيد
بتأليف
بتأمين
بتأهيل
بتأييد
بتاريخ
بتبادل
بتتويج
بتثبيت
بتجارب
بتجاهل
بتجاوز
بتجديد
بتجسيد
بتجميد
بتجميع
بتجنيد
بتجهيز
بتحديث
بتحديد
[...]
